/**
  ******************************************************************************
  * @file    fashionmnist_data.c
  * @author  AST Embedded Analytics Research Platform
  * @date    Sun Jul 18 18:14:27 2021
  * @brief   AI Tool Automatic Code Generator for Embedded NN computing
  ******************************************************************************
  * @attention
  *
  * Copyright (c) 2021 STMicroelectronics.
  * All rights reserved.
  *
  * This software component is licensed by ST under Ultimate Liberty license
  * SLA0044, the "License"; You may not use this file except in compliance with
  * the License. You may obtain a copy of the License at:
  *                             www.st.com/SLA0044
  *
  ******************************************************************************
  */
#include "fashionmnist_data.h"
#include "ai_platform_interface.h"


AI_ALIGNED(32)
const ai_u64 s_fashionmnist_weights_array_u64[ 133305 ] = {
  0x3d32742b3d826896U, 0x3d1ddceb3ba4ba00U, 0x3d7df416bd9022c0U, 0x3d85d720bd026896U,
  0xbd1ddcebbd402e56U, 0x3c402e563ca4ba00U, 0xbd3951403cf71700U, 0x3b5ba2abbe1022c0U,
  0x3d96ffd6bc402e56U, 0x3da4ba00bd4de880U, 0x3d16ffd600000000U, 0xbd7df416bd627fc0U,
  0xbd32742bbba4ba00U, 0xbd627fc0bd1ddcebU, 0x3c5ba2ab3ca4ba00U, 0xbd85d7203d96ffd6U,
  0xbd7df416bd1022c0U, 0xbccde8803ccde880U, 0xbd5ba2abbadba2abU, 0x3adba2abbc8945abU,
  0x3cdba2abbc5ba2abU, 0xbd2b9716bd026896U, 0xbd8268963d85d720U, 0xbc771700bc24ba00U,
  0x3d3951403d395140U, 0xbd1ddceb3d0945abU, 0xbce95cd6bd627fc0U, 0x3d695cd6bd1022c0U,
  0xbc24ba003d2b9716U, 0x3d93914b3d9022c0U, 0x3d402e563d771700U, 0x3ca4ba003c402e56U,
  0x3cb2742bbd1ddcebU, 0xbca4ba00bd7039ebU, 0xbd026896bc24ba00U, 0x3d32742b3d695cd6U,
  0xbb5ba2ab3d026896U, 0xbd2b9716bd695cd6U, 0xbcdba2ab3bdba2abU, 0x3da14b763cf71700U,
  0xbbdba2ab3c24ba00U, 0x3ccde880bd24ba00U, 0xbd395140bd8945abU, 0xbc96ffd63d8945abU,
  0xbd24ba003adba2abU, 0x3cc02e563d395140U, 0x3ccde880bd2b9716U, 0x3d1022c0bc0945abU,
  0xbbdba2abbca4ba00U, 0xbc24ba00bd5ba2abU, 0x3da14b763d8945abU, 0xbb5ba2ab3d96ffd6U,
  0x3d85d7203da14b76U, 0x3d402e56bc5ba2abU, 0xbb5ba2ab3d9022c0U, 0x3d695cd63cf71700U,
  0xbd0945ab3d54c596U, 0x3c96ffd63c5ba2abU, 0xbd695cd6bd1ddcebU, 0x3c402e56bd24ba00U,
  0x3d1022c0bd16ffd6U, 0x3c8945abbd026896U, 0x3d8cb436bd8cb436U, 0x3cb2742bbdb95140U,
  0xbd24ba00bd8cb436U, 0xbc8945ab3ca4ba00U, 0x3cf717003adba2abU, 0x3d16ffd63ba4ba00U,
  0xbd8cb4363d54c596U, 0xbd2b97163ce95cd6U, 0xbd2b9716bce95cd6U, 0xbcb2742b3d1022c0U,
  0xbc8945abbd627fc0U, 0xbd5ba2abbd24ba00U, 0x3adba2ab3c24ba00U, 0xbd24ba003d0945abU,
  0x3cf717003d2b9716U, 0xbd0945abbce95cd6U, 0x3d8268963d85d720U, 0xbd771700bda8288bU,
  0x3c96ffd63d4de880U, 0xbd395140bd470b6bU, 0x3d4de8803dca79f6U, 0x3c771700bd4de880U,
  0x3ba4ba00bd1ddcebU, 0xbd7039ebbd1ddcebU, 0xbc24ba003ba4ba00U, 0xbd9022c0bcb2742bU,
  0x3d32742bbdd4c596U, 0x3d627fc0bd0945abU, 0xbd402e56bd24ba00U, 0x3d627fc03c771700U,
  0xbccde8803cc02e56U, 0xbc96ffd6bd695cd6U, 0xbc0945abbc771700U, 0x3da8288bbcf71700U,
  0x3d8268963ba4ba00U, 0x3d7717003d54c596U, 0xbba4ba00bd395140U, 0x3d54c596bcf71700U,
  0xbdb2742bbd96ffd6U, 0xbdcde880bdaf05a0U, 0xbd8945abbc402e56U, 0xbd7039eb3ccde880U,
  0x3d8cb4363c771700U, 0x3ba4ba00bc771700U, 0xbb5ba2ab3d826896U, 0xbc5ba2abbd9ddcebU,
  0x3c5ba2abbd402e56U, 0xbc8945abbd695cd6U, 0x3d402e5600000000U, 0x3d9022c03ce95cd6U,
  0xbd7039eb3c402e56U, 0xbadba2abbcdba2abU, 0xbda14b76bdd83420U, 0xbddf1136bda14b76U,
  0xbb5ba2abbdd1570bU, 0xbd695cd6bde5ee4bU, 0x3dab9716bc24ba00U, 0x3c7717003d9022c0U,
  0x3ccde880bc0945abU, 0xbd1022c03da4ba00U, 0x3d1022c03da4ba00U, 0x3d96ffd6bc24ba00U,
  0x3c24ba00bd627fc0U, 0x3d24ba00bbdba2abU, 0xbdb951403c96ffd6U, 0xbd9a6e60bd2b9716U,
  0xbd85d720bda8288bU, 0xbd93914bbdd83420U, 0x3c402e56bdb5e2b6U, 0xbd7717003ce95cd6U,
  0xbbdba2abbcdba2abU, 0x3da4ba00bcb2742bU, 0x3cdba2ab3d4de880U, 0x3d96ffd6bd85d720U,
  0xbba4ba00bc402e56U, 0xbc0945ab3dc02e56U, 0x3ca4ba00bd4de880U, 0xbd470b6bbda8288bU,
  0xbd9022c0bd0945abU, 0x3cdba2ab3c24ba00U, 0xbd395140bd8945abU, 0xbba4ba00bd9022c0U,
  0x3d395140bd4de880U, 0x3cb2742bbd826896U, 0x3de95cd63db95140U, 0xbd0268963d9a6e60U,
  0x3d470b6b3ccde880U, 0xbd627fc03c0945abU, 0x3db2742b3d026896U, 0x3c5ba2abbd1022c0U,
  0x3d4de880bc8945abU, 0xbc96ffd6bda8288bU, 0xbd9a6e60bd627fc0U, 0xbd402e56badba2abU,
  0xbc24ba003cc02e56U, 0x3cf717003d2b9716U, 0xbd96ffd6bcf71700U, 0xbd1022c03d402e56U,
  0x3d695cd6bce95cd6U, 0x3cdba2abbc402e56U, 0x3cb2742bbca4ba00U, 0xbd695cd6bd24ba00U,
  0xbca4ba003da14b76U, 0xbd0945ab3d7039ebU, 0x3ca4ba003d8cb436U, 0x3d54c5963d7df416U,
  0xbdc39ce0bc771700U, 0x3c24ba00bdb5e2b6U, 0xbd1022c0bddba2abU, 0x3bdba2ab3bdba2abU,
  0x3d2b9716bd1022c0U, 0x3daf05a0bd402e56U, 0xbcc02e56bd826896U, 0x3d85d720bd395140U,
  0x3d77170000000000U, 0x3ba4ba003d85d720U, 0xbc24ba00badba2abU, 0xbd8268963d54c596U,
  0xbd0268963bdba2abU, 0x3d026896bd9a6e60U, 0xbd4de8803d627fc0U, 0x3cb2742bbd826896U,
  0x3d9022c0bb5ba2abU, 0xbd470b6b3ce95cd6U, 0x3ccde8803d85d720U, 0xbca4ba00U,
  0x3d026896bca4ba00U, 0x3ca4ba00bd470b6bU, 0xbd470b6b3adba2abU, 0x3d7717003d7039ebU,
  0xbd3951403c771700U, 0xbd627fc0bd32742bU, 0xbcdba2abbc771700U, 0xbd5ba2ab3ce95cd6U,
  0x3d2b97163d627fc0U, 0xbd85d720bd4de880U, 0x3d771700bd5ba2abU, 0x3d54c5963d1022c0U,
  0x3d7df416bd0945abU, 0xbd402e563d5ba2abU, 0x3cf717003d470b6bU, 0x3d402e56bd7df416U,
  0xbd54c5963c402e56U, 0x3c7717003da14b76U, 0x3ca4ba003d1ddcebU, 0xbb5ba2ab3cb2742bU,
  0xbd16ffd6bdc70b6bU, 0x3ba4ba00bd026896U, 0x3c402e56bd54c596U, 0x3c0945ab3d54c596U,
  0x3ca4ba00bd402e56U, 0x3d0945ab3c5ba2abU, 0x3d16ffd63d395140U, 0xbd7df4163c5ba2abU,
  0x3c24ba003cdba2abU, 0x3cdba2ab3d85d720U, 0x3d4de880bcdba2abU, 0x3dc02e563c24ba00U,
  0x3ccde880bd470b6bU, 0xbd16ffd6bd16ffd6U, 0xbc771700bc96ffd6U, 0xbd8268963d470b6bU,
  0x3d0945ab3c771700U, 0xbd2b9716bc5ba2abU, 0x3da14b763d8945abU, 0x3d32742b3de5ee4bU,
  0x3d402e563d9ddcebU, 0x3d771700bce95cd6U, 0x3d93914b3c402e56U, 0x3d16ffd6bd32742bU,
  0xbdbcbfcb3d9a6e60U, 0x3da4ba003ba4ba00U, 0x3c96ffd6bc5ba2abU, 0xbd7df416bca4ba00U,
  0x3c0945ab3d826896U, 0xbda4ba00bcb2742bU, 0x3c8945ab3d826896U, 0xbd826896bcc02e56U,
  0x3de27fc03d2b9716U, 0x3dc39ce03d7039ebU, 0xbc5ba2ab3d9a6e60U, 0xbd402e563ca4ba00U,
  0xbba4ba003d627fc0U, 0x3d5ba2abbb5ba2abU, 0xbd7717003d4de880U, 0xbd0945abbd93914bU,
  0xbca4ba003d32742bU, 0xbc771700bd771700U, 0x3d54c596bd2b9716U, 0x3db5e2b63d7039ebU,
  0xbadba2abbc0945abU, 0xbd402e56bcdba2abU, 0x3d96ffd63dbcbfcbU, 0x3da4ba00bd1022c0U,
  0xbcdba2ab00000000U, 0x3d54c5963ce95cd6U, 0x3d0945abbd026896U, 0xbd0268963cdba2abU,
  0xbadba2ab3cb2742bU, 0x3c0945abbdab9716U, 0xbd9022c03d0945abU, 0xbda4ba003d9022c0U,
  0x3d93914b3d54c596U, 0x3cf71700bc96ffd6U, 0x3da4ba00bc96ffd6U, 0x3d627fc0bd1ddcebU,
  0x3cb2742bbd026896U, 0x3d627fc03d7df416U, 0x3adba2abbd93914bU, 0x3d96ffd6bd695cd6U,
  0xbd7039eb3ccde880U, 0xbc8945abbdc02e56U, 0xbbdba2abbc771700U, 0xbd4de8803d24ba00U,
  0x3adba2abbce95cd6U, 0xbcf717003c5ba2abU, 0x3dcde880bcb2742bU, 0xbc5ba2ab3d2b9716U,
  0xbd695cd6bc5ba2abU, 0xbd9ddcebbd8945abU, 0xbc24ba003d4de880U, 0xbc402e563daf05a0U,
  0x3d395140bd93914bU, 0xbd470b6bbd026896U, 0x3c5ba2abbc8945abU, 0xbd8945ab00000000U,
  0xbde27fc03d9a6e60U, 0xbc402e56bc24ba00U, 0x3c0945abbd1ddcebU, 0xbd627fc0bcdba2abU,
  0xbc402e56bc0945abU, 0xbca4ba00bd24ba00U, 0xbda14b76bc402e56U, 0xbd9ddcebbd9ddcebU,
  0x3ba4ba00bd0945abU, 0x3d8945abbc96ffd6U, 0xbc24ba003da8288bU, 0x3ce95cd6bca4ba00U,
  0xbd1ddceb3d1022c0U, 0xbccde880bd5ba2abU, 0xbd9022c03d9022c0U, 0xbbdba2abbd16ffd6U,
  0x3cc02e56bd4de880U, 0x3b5ba2ab3c402e56U, 0x3d4de880bd54c596U, 0xbdb951403bdba2abU,
  0x3b5ba2abbbdba2abU, 0xbd9a6e60bd1022c0U, 0xbcdba2abbcc02e56U, 0xbbdba2abbd7df416U,
  0x3dbcbfcbbce95cd6U, 0x3d2b97163c0945abU, 0x3d85d7203d85d720U, 0xbd1022c03adba2abU,
  0xbd8cb436bb5ba2abU, 0xbd4de880bd16ffd6U, 0x3bdba2abbdd83420U, 0x3d627fc0bd4de880U,
  0xbc8945ab3d771700U, 0xbd4de880bd1022c0U, 0x3ba4ba00bd771700U, 0x3d402e56bdb95140U,
  0x3c402e563d1ddcebU, 0xbd695cd6bd470b6bU, 0x3d8945ab3d8cb436U, 0xbc8945ab3d8945abU,
  0x3c96ffd6bd24ba00U, 0x3d85d720bc96ffd6U, 0xbdb95140bd026896U, 0xbd9022c0bd9a6e60U,
  0xbd8945abbd54c596U, 0xbd0268963d32742bU, 0x3d24ba003d395140U, 0x3d695cd63d395140U,
  0xbd9ddceb3ccde880U, 0xbb5ba2abbd85d720U, 0x3ce95cd6bd026896U, 0xbd695cd6bda4ba00U,
  0xbcb2742bbb5ba2abU, 0x3cb2742b3db5e2b6U, 0xbd0945abbd5ba2abU, 0xbd470b6b3cdba2abU,
  0xbd16ffd6bd4de880U, 0x3c771700bc402e56U, 0xbd54c596bda14b76U, 0xbc0945ab3d32742bU,
  0x3c0945abbcdba2abU, 0xbd1022c0bc24ba00U, 0xbadba2abbd695cd6U, 0xbbdba2ab3d627fc0U,
  0xbd771700bd24ba00U, 0xbd7df4163d1ddcebU, 0x3d402e563dc02e56U, 0x3d32742bbd32742bU,
  0xbd54c596bc402e56U, 0x3d8945abbccde880U, 0xbc96ffd6bda14b76U, 0xbd4de8803ca4ba00U,
  0x3d32742bbd8cb436U, 0x3ba4ba003cdba2abU, 0x3d026896bd026896U, 0xbcdba2ab3d4de880U,
  0x3d9a6e603d026896U, 0xbd402e56bcc02e56U, 0xbce95cd6bc96ffd6U, 0x3d826896bce95cd6U,
  0x3ce95cd6bc402e56U, 0x3d7df4163d9022c0U, 0xbd5ba2ab3d9ddcebU, 0xbbdba2ab3d402e56U,
  0x3d8945abbadba2abU, 0x3d5ba2abbd4de880U, 0x3d16ffd63d771700U, 0xbd54c59600000000U,
  0x3d7039eb3d8cb436U, 0xbd9ddcebbd395140U, 0x3d1022c03ccde880U, 0xbcf717003d5ba2abU,
  0xbdb95140bd402e56U, 0xbd16ffd6bd5ba2abU, 0xbd16ffd63b5ba2abU, 0xbca4ba003d1ddcebU,
  0xbdb2742bbadba2abU, 0xbdbcbfcbbd8945abU, 0x3d0268963d8945abU, 0x3c24ba00bd7039ebU,
  0x3cdba2abbd16ffd6U, 0x3d402e56bd9ddcebU, 0x3adba2abbc5ba2abU, 0x3d93914bbd402e56U,
  0xbcdba2ab3d826896U, 0xbd9a6e603b5ba2abU, 0xbd1ddceb3d54c596U, 0xbadba2abbd24ba00U,
  0xbd32742b00000000U, 0x3d1022c03d85d720U, 0xbd627fc03d1022c0U, 0xbdca79f63d8cb436U,
  0x3d1ddcebbd8cb436U, 0x3d2b97163d8cb436U, 0x3d2b97163d32742bU, 0xbc96ffd63d627fc0U,
  0x3d85d720bd9ddcebU, 0xbd7039ebbd826896U, 0x3c8945ab3d771700U, 0x3d0945abbd402e56U,
  0xbcc02e56bd85d720U, 0x3ccde8803ccde880U, 0xbd93914bbde95cd6U, 0x3d1022c03d7039ebU,
  0xbd0945ab3bdba2abU, 0x3c402e563d96ffd6U, 0x3c96ffd63bdba2abU, 0x3cb2742bbba4ba00U,
  0xbd24ba00bd395140U, 0x3d7717003d32742bU, 0xbc0945ab3d1022c0U, 0x3d1ddcebbcb2742bU,
  0x3d16ffd6bba4ba00U, 0xbc771700U, 0x3c8945abbadba2abU, 0xbdb95140U,
  0xbd4de880bd8945abU, 0x3d1022c000000000U, 0x3d7039eb3d93914bU, 0x3d5ba2ab3d9ddcebU,
  0x3d826896bd0945abU, 0x3c5ba2ab3c96ffd6U, 0xbd771700badba2abU, 0xbd7039ebbc8945abU,
  0x3d24ba00bcdba2abU, 0x3cc02e563adba2abU, 0x3d4de8803d2b9716U, 0xbccde8803d695cd6U,
  0xbca4ba003d85d720U, 0xbc0945abbc96ffd6U, 0x3d1022c0bcc02e56U, 0x3d3951403da8288bU,
  0x3c5ba2ab3db5e2b6U, 0x3d1ddceb3d93914bU, 0x3d96ffd63d026896U, 0xbd85d720bbdba2abU,
  0x3d9a6e60badba2abU, 0xbc7717003d93914bU, 0x3c0945abbc771700U, 0xbc5ba2ab3d8945abU,
  0xbbdba2abbca4ba00U, 0x3adba2ab3ca4ba00U, 0xbd1022c03d16ffd6U, 0xbd402e563c24ba00U,
  0x3ce95cd6bd54c596U, 0xbd0268963da14b76U, 0xbccde880bd026896U, 0x3c24ba003d627fc0U,
  0x3c0945ab3d24ba00U, 0x3db951403df039ebU, 0x3dab9716bd2b9716U, 0x3b5ba2abbc96ffd6U,
  0x3d5ba2abbccde880U, 0xbd8945abbd54c596U, 0xbd8cb4363d96ffd6U, 0x3d8cb436bbdba2abU,
  0x3d0268963d9022c0U, 0x3adba2abbd54c596U, 0x3d1ddcebbd24ba00U, 0xbcb2742b3d0945abU,
  0xbcdba2abbd1ddcebU, 0x3c402e56bd2b9716U, 0xbce95cd63adba2abU, 0xbd54c596bba4ba00U,
  0xbd4de880bc96ffd6U, 0xbcc02e563c5ba2abU, 0x3d026896bd402e56U, 0xbcb2742bbd8cb436U,
  0x3d4de8803c771700U, 0x3cb2742bbd9022c0U, 0x3d8945abbd7039ebU, 0xbccde880bba4ba00U,
  0x3c24ba00bd026896U, 0xbadba2abbdc70b6bU, 0x3d5ba2ab3d24ba00U, 0x3d2b9716bc8945abU,
  0x3d16ffd6bd85d720U, 0x3d026896bd5ba2abU, 0x3d771700bce95cd6U, 0x3cf717003dca79f6U,
  0xbd2b97163da14b76U, 0xbc8945abbadba2abU, 0x3d24ba00bd1022c0U, 0x3ce95cd63bdba2abU,
  0xbc96ffd6bc24ba00U, 0xbc24ba003d9022c0U, 0xbd93914bbcdba2abU, 0xbdc70b6bbcf71700U,
  0x3ccde880bda4ba00U, 0xbd8cb436bbdba2abU, 0xbd695cd6bd8cb436U, 0x3dd1570b3da8288bU,
  0x3d826896bd24ba00U, 0x3d85d7203ccde880U, 0xbba4ba00bd395140U, 0x3d4de8803bdba2abU,
  0x3ce95cd6bd54c596U, 0x3d32742bbd0945abU, 0x3daf05a03da14b76U, 0x3d54c5963da14b76U,
  0xbd8945abbdd83420U, 0xbd4de880bdc02e56U, 0xbda4ba00bdc02e56U, 0xbd4de880bd0945abU,
  0xbd5ba2abbd85d720U, 0x3c7717003c5ba2abU, 0xbcb2742bbd54c596U, 0x3d470b6b3d5ba2abU,
  0x3d7039ebbd2b9716U, 0x3d54c596bd395140U, 0xbd2b97163b5ba2abU, 0xbb5ba2ab3cb2742bU,
  0x3d5ba2ab3d9022c0U, 0xbd627fc03d627fc0U, 0xbd470b6bbbdba2abU, 0xbc5ba2abbd1ddcebU,
  0xbd7039eb3ba4ba00U, 0xbce95cd63cc02e56U, 0x3d8cb436bd026896U, 0xbd7717003db2742bU,
  0x3d24ba00bd5ba2abU, 0xbc96ffd63d2b9716U, 0x3d8945ab3cb2742bU, 0xbbdba2abbd85d720U,
  0xbd1ddcebU, 0xbd695cd6bd8cb436U, 0xbcdba2abbadba2abU, 0xbd7039eb3d1022c0U,
  0x3cb2742bbc24ba00U, 0xbcb2742bbd8945abU, 0xbc8945abbd9022c0U, 0xbda4ba00bdb5e2b6U,
  0xbc24ba003ce95cd6U, 0x3d695cd63da8288bU, 0x3d8cb436bd9022c0U, 0x3dfa858b3ca4ba00U,
  0x3c96ffd6bd627fc0U, 0xbadba2abbd32742bU, 0xbd470b6b3ba4ba00U, 0xbd627fc0bd1022c0U,
  0xbda4ba003d32742bU, 0x3ce95cd6bd4de880U, 0xbdc39ce0bde95cd6U, 0xbd4de880bd395140U,
  0x3d026896bd7df416U, 0xbda8288bbd9022c0U, 0x3cb2742b3ba4ba00U, 0xbc5ba2abbccde880U,
  0x3d93914bbc96ffd6U, 0x3ddf11363ba4ba00U, 0x3adba2ab3c5ba2abU, 0x3d0945abbd7df416U,
  0x3cdba2ab3c402e56U, 0xbd7717003d627fc0U, 0x3d85d7203d402e56U, 0xbd771700bd026896U,
  0x3d395140bd5ba2abU, 0xbd8945abbd026896U, 0xbba4ba00bcdba2abU, 0xbc96ffd63cdba2abU,
  0x3b5ba2ab3d771700U, 0x3d7717003d7039ebU, 0x3ce95cd6bd771700U, 0xbadba2ab3d771700U,
  0xbd4de880bc5ba2abU, 0xbce95cd63c24ba00U, 0xbd7039eb3c771700U, 0xbce95cd6bd395140U,
  0x3cc02e56bc24ba00U, 0xbd16ffd6bcc02e56U, 0x3cc02e56bd9022c0U, 0xbd16ffd6bdb95140U,
  0xbd7df416bd24ba00U, 0x3d5ba2ab3cdba2abU, 0x3c96ffd63d2b9716U, 0x3b5ba2abbd0945abU,
  0xbd16ffd6bba4ba00U, 0x3cf717003ba4ba00U, 0x3d0945ab3d8945abU, 0xbd826896bc402e56U,
  0xbd8945ab3d402e56U, 0xbd0268963d2b9716U, 0xbba4ba00bc96ffd6U, 0xbda4ba003bdba2abU,
  0xbd1022c0U, 0xbd2b97163d7039ebU, 0x3c8945abbce95cd6U, 0x3ccde8803da14b76U,
  0xbc24ba003db5e2b6U, 0xbd470b6bbcdba2abU, 0x3d5ba2abbd1022c0U, 0x3d8945ab3c24ba00U,
  0x3d627fc0bbdba2abU, 0x3d3951403ce95cd6U, 0xbd4de8803d85d720U, 0xbd9ddceb3d24ba00U,
  0xbd627fc0bda14b76U, 0xbd32742bbc0945abU, 0x3d627fc03d16ffd6U, 0xbcf717003c771700U,
  0xbc5ba2ab3d9a6e60U, 0x3da4ba00bcc02e56U, 0x3daf05a0bd32742bU, 0x3d9022c03bdba2abU,
  0x3d695cd6bca4ba00U, 0xbd395140bca4ba00U, 0xbadba2abU, 0xbd826896bd54c596U,
  0x3d8945ab3d16ffd6U, 0xbcdba2abbba4ba00U, 0xbc8945abbd32742bU, 0x3c24ba003c96ffd6U,
  0x3d695cd6badba2abU, 0x3dab97163cb2742bU, 0xbc24ba00bd771700U, 0xbadba2abbd0945abU,
  0xbd24ba00bd395140U, 0x3b5ba2ab3d826896U, 0xbca4ba00bd1022c0U, 0xbd8cb4363d24ba00U,
  0x3c402e56bbdba2abU, 0xbb5ba2abbca4ba00U, 0x3adba2abbb5ba2abU, 0xbcdba2ab3d93914bU,
  0x3d0945abbd16ffd6U, 0x3adba2ab3cc02e56U, 0xbd627fc0bd93914bU, 0x3da4ba003bdba2abU,
  0x3bdba2ab3d16ffd6U, 0xbd5ba2abbcf71700U, 0x3d1ddceb3d24ba00U, 0xbd16ffd63bdba2abU,
  0x3ca4ba00bd7039ebU, 0x3c24ba003d9a6e60U, 0xbdaf05a03b5ba2abU, 0xbd96ffd63d7df416U,
  0xbd395140bbdba2abU, 0xbc402e56bcb2742bU, 0xbd8cb436bd93914bU, 0x3cdba2abbd54c596U,
  0xbc5ba2ab3d8cb436U, 0xbc8945abbd16ffd6U, 0x3d16ffd63d32742bU, 0x3d1ddcebbd16ffd6U,
  0xbbdba2ab3cdba2abU, 0x3b5ba2ab3ba4ba00U, 0x3ccde880bd826896U, 0x3d8268963d470b6bU,
  0xbcb2742b3d9ddcebU, 0xbd470b6bbc8945abU, 0x3d9a6e603c771700U, 0x3d5ba2abbd826896U,
  0x3d0945abbd470b6bU, 0xbd9022c03d470b6bU, 0x3d402e563db5e2b6U, 0xbd1ddceb3d8cb436U,
  0x3c24ba00bcdba2abU, 0x3c402e56bd2b9716U, 0xbd3951403d5ba2abU, 0x3d3951403d826896U,
  0xbd54c596bdc02e56U, 0xbc8945ab3d8cb436U, 0xbd24ba003c771700U, 0x3dc39ce03d96ffd6U,
  0x3d7039eb3ccde880U, 0xbd0945ab3d2b9716U, 0x3d8cb4363c771700U, 0x3cdba2abbd1022c0U,
  0xbd1022c03d2b9716U, 0x3b5ba2ab3d9022c0U, 0x3cb2742bU, 0x3c402e56bd5ba2abU,
  0x3db2742b3ccde880U, 0xbd2b97163bdba2abU, 0xbca4ba00bd627fc0U, 0xbccde880bca4ba00U,
  0x3d3951403cf71700U, 0x3d4de8803cc02e56U, 0x3d470b6b3cb2742bU, 0x3d9a6e603c96ffd6U,
  0x3d16ffd63d32742bU, 0xbd8945ab3c5ba2abU, 0x3d93914b3c24ba00U, 0x3d695cd6bd0945abU,
  0xbc0945ab3d395140U, 0x3ccde880bcdba2abU, 0xbc24ba00bd24ba00U, 0x3d5ba2ab3db2742bU,
  0xbd9ddcebbd9ddcebU, 0xbadba2abbd470b6bU, 0x3ccde880U, 0x3d85d7203cc02e56U,
  0x3d402e563d695cd6U, 0x0U, 0x3d8cb4363c771700U, 0xbd96ffd6bd402e56U,
  0x3da8288bbd9a6e60U, 0x3dc02e563d7039ebU, 0xbd8cb4363d695cd6U, 0xbd1ddceb3c5ba2abU,
  0x3dab97163d96ffd6U, 0x3d1022c0bd470b6bU, 0xbd24ba00bdd4c596U, 0x3d16ffd6bd5ba2abU,
  0xbd32742b3ce95cd6U, 0xbd5ba2ab3c24ba00U, 0xbd4de880bd470b6bU, 0x3ce95cd6bd7df416U,
  0x3ccde8803d9a6e60U, 0x3c771700bcc02e56U, 0xbc24ba00bda8288bU, 0xbc0945abbd026896U,
  0xbc24ba003d16ffd6U, 0xbd826896bd32742bU, 0x3d7717003ce95cd6U, 0x3d771700bc5ba2abU,
  0x3d2b9716bd8cb436U, 0x3da14b763c24ba00U, 0x3bdba2abbd1ddcebU, 0xbd2b971600000000U,
  0xbc771700bd16ffd6U, 0x3d826896bd4de880U, 0xbadba2ab3db5e2b6U, 0xbd32742b3c8945abU,
  0x3dbcbfcb3c5ba2abU, 0x3cb2742b3bdba2abU, 0xbca4ba00bd0945abU, 0x3c8945abbd8945abU,
  0x3d8cb436bca4ba00U, 0x3d695cd6bba4ba00U, 0x3ce95cd6bcf71700U, 0xbd16ffd6bd16ffd6U,
  0x3ce95cd6bcf71700U, 0xbccde8803d96ffd6U, 0x3d0268963ba4ba00U, 0x3c5ba2ab3ba4ba00U,
  0xbca4ba003dab9716U, 0xbce95cd6bd16ffd6U, 0x3c8945abbd16ffd6U, 0xbd627fc0bd16ffd6U,
  0x3c24ba003ba4ba00U, 0x3cdba2abbc96ffd6U, 0x3d8cb4363c402e56U, 0x3ce95cd63cdba2abU,
  0xbdc39ce0bc402e56U, 0xbd4de8803c5ba2abU, 0xbd4de880bd8945abU, 0xbd3951403c24ba00U,
  0x3cdba2abbd2b9716U, 0xbd54c596bd771700U, 0x3c402e563d8cb436U, 0x3d54c5963ccde880U,
  0x3d9a6e603d0945abU, 0xbc5ba2ab3ba4ba00U, 0xbd8945ab3b5ba2abU, 0xbd5ba2abbddba2abU,
  0x3c24ba00bc0945abU, 0x3d4de8803d54c596U, 0xbca4ba00bce95cd6U, 0x3d7039eb3d395140U,
  0x3d7df416bca4ba00U, 0x3cf717003d771700U, 0x3bdba2ab3c402e56U, 0x3d24ba00bce95cd6U,
  0x3b5ba2ab3ce95cd6U, 0xbd8cb4363c8945abU, 0x3ca4ba003d0945abU, 0x3d7717003d85d720U,
  0x3c5ba2abbd32742bU, 0xbdb95140bcf71700U, 0xbca4ba00bc0945abU, 0x3dc02e56bd1022c0U,
  0xbd16ffd63adba2abU, 0x3c771700bcb2742bU, 0x3d0945abbd695cd6U, 0xbd8cb436bd0945abU,
  0x3ce95cd6bce95cd6U, 0x3d24ba003d4de880U, 0x3d5ba2ab3ccde880U, 0x3cdba2ab3d771700U,
  0xbc8945abbd026896U, 0x3c8945abbc8945abU, 0xbd32742bbd771700U, 0xbd627fc0bd026896U,
  0x3d54c59600000000U, 0xbd7df4163c5ba2abU, 0xbccde8803bdba2abU, 0xbd54c596bd9022c0U,
  0x3d470b6b00000000U, 0x3d7df4163c96ffd6U, 0xbd470b6b3d8945abU, 0x3d7039eb3d7039ebU,
  0xbbdba2ab3d026896U, 0x3d8945ab3c96ffd6U, 0xbd4de880bd32742bU, 0x3dab97163d2b9716U,
  0x3d627fc0bd695cd6U, 0xbcf71700bbdba2abU, 0x3d5ba2abbd7039ebU, 0xbd3951403d9a6e60U,
  0xbc8945abbd1022c0U, 0xbd3951403d16ffd6U, 0xbc24ba00bc771700U, 0x3c8945abbc771700U,
  0xbd54c596bd7df416U, 0x3cb2742bbd695cd6U, 0x3d54c5963d5ba2abU, 0xbd0945abbd16ffd6U,
  0x3b5ba2ab3d54c596U, 0xbd5ba2ab3cdba2abU, 0xbdb2742b3c5ba2abU, 0xbd32742bbc402e56U,
  0xbd402e56bcc02e56U, 0xbc96ffd63d627fc0U, 0x3cc02e563cdba2abU, 0x3d627fc03c402e56U,
  0xbc24ba003d026896U, 0x3d771700bd54c596U, 0x3ccde8803d7039ebU, 0xbcdba2abbc402e56U,
  0xbd627fc03da8288bU, 0xbd627fc0bd7df416U, 0xbd5ba2ab3c0945abU, 0x3cb2742bbd9022c0U,
  0xbd9ddceb3d7df416U, 0xbcf71700bcc02e56U, 0xbccde880bd54c596U, 0x3b5ba2abbd627fc0U,
  0x3cb2742bbd32742bU, 0x3c96ffd6bc96ffd6U, 0xbd771700bd2b9716U, 0xbd16ffd6bca4ba00U,
  0xbc24ba003d85d720U, 0xbd24ba003cb2742bU, 0xbd402e56bcf71700U, 0xbd5ba2abbd4de880U,
  0xbd695cd63d7039ebU, 0xbc0945ab3d627fc0U, 0x3d1ddceb3c771700U, 0x3d470b6b3c771700U,
  0xbdab97163c0945abU, 0xbd470b6bbd16ffd6U, 0x3c24ba003c0945abU, 0xbc24ba00bbdba2abU,
  0x3d54c596bd8945abU, 0x3c402e563d402e56U, 0xbccde8803d16ffd6U, 0x3bdba2ab3d627fc0U,
  0x3d627fc0bc5ba2abU, 0x3ba4ba003d4de880U, 0x3cf71700bc771700U, 0x3ccde880bc8945abU,
  0xbca4ba00bc8945abU, 0x3d32742bbca4ba00U, 0x3d8cb436bba4ba00U, 0xbc24ba003db5e2b6U,
  0xbd7039eb3c771700U, 0xbd0945ab3c771700U, 0xbd7039eb3d54c596U, 0x3adba2ab3ce95cd6U,
  0xbd627fc03d1022c0U, 0x3c771700badba2abU, 0x3d627fc03cc02e56U, 0xbbdba2ab3c0945abU,
  0xbd3951403d4de880U, 0x3d9a6e603d627fc0U, 0x3cc02e563d771700U, 0xbd2b97163ce95cd6U,
  0x3d1022c0bc402e56U, 0xbd7717003d7df416U, 0xbd16ffd63cc02e56U, 0x3ccde880bd402e56U,
  0xbadba2abbd32742bU, 0xbd9022c0bd7df416U, 0x3c96ffd6bccde880U, 0xbd695cd6bc771700U,
  0xbca4ba003d9a6e60U, 0x3cdba2abbd695cd6U, 0xbd402e563c5ba2abU, 0x3d771700bd1022c0U,
  0x3ccde8803d402e56U, 0xbc8945abbccde880U, 0x3c24ba003d32742bU, 0x3cc02e56bd2b9716U,
  0xbd470b6bbd96ffd6U, 0xbca4ba003d402e56U, 0x3dc39ce03cc02e56U, 0xbd1ddceb3d1ddcebU,
  0xbd8cb436bcc02e56U, 0x3cc02e56bd470b6bU, 0xbd7df416bd7039ebU, 0x3ba4ba003d4de880U,
  0xbbdba2abbcc02e56U, 0x3d1022c03c96ffd6U, 0x3d93914b3d93914bU, 0x3d695cd63d9a6e60U,
  0xbd0945ab3d85d720U, 0xbd4de8803d8945abU, 0xbd695cd6bddba2abU, 0x3cc02e56bcc02e56U,
  0x3c96ffd63d9022c0U, 0xbce95cd6bc402e56U, 0x3d32742b3ccde880U, 0xbd1ddceb3d7df416U,
  0xbd4de880bc0945abU, 0x3d54c596bd0945abU, 0x3dc02e563d16ffd6U, 0xbc5ba2abbd24ba00U,
  0xbca4ba00bc96ffd6U, 0x3d9ddcebbca4ba00U, 0x3d24ba00bc5ba2abU, 0xbba4ba00badba2abU,
  0xbdd1570bbda14b76U, 0x3d4de8803adba2abU, 0xbd695cd63d826896U, 0xbc24ba003d026896U,
  0xbd402e56bd1022c0U, 0x3d8cb4363d24ba00U, 0xbc5ba2ab3d54c596U, 0xbcdba2ab3cdba2abU,
  0xbcf71700bb5ba2abU, 0x3da14b76bc402e56U, 0x3d24ba003db95140U, 0x3d32742bbba4ba00U,
  0x3cf717003d16ffd6U, 0xbd4de880bc5ba2abU, 0xbd826896bc771700U, 0xbd627fc03cc02e56U,
  0x3d1ddcebbda4ba00U, 0xbcf717003adba2abU, 0x3d1ddcebbcc02e56U, 0xbd24ba00U,
  0x3d24ba003d1022c0U, 0xbd96ffd6bd93914bU, 0x3d54c5963cb2742bU, 0x3dc02e563d470b6bU,
  0x3d24ba003c96ffd6U, 0x3dab97163d54c596U, 0x3bdba2ab3c96ffd6U, 0xbcb2742b3d627fc0U,
  0xbd9a6e60bba4ba00U, 0xbd771700bc24ba00U, 0x3c402e563d1022c0U, 0x3cb2742bbd4de880U,
  0x3cdba2ab3d771700U, 0xbcf717003d24ba00U, 0xbd8945abbc96ffd6U, 0xbba4ba003d7039ebU,
  0x3d24ba003d1ddcebU, 0x3cf717003d16ffd6U, 0x3cb2742b3d7039ebU, 0x3cdba2ab3d5ba2abU,
  0xbd1022c03d9022c0U, 0x3adba2abbd1ddcebU, 0xbd470b6bbdab9716U, 0x3d32742b3c96ffd6U,
  0xbc402e563d0945abU, 0x3c96ffd63d93914bU, 0xbd8cb436U, 0xbcf71700bd402e56U,
  0x3c5ba2abbc402e56U, 0xbc402e563d470b6bU, 0x3d24ba003ddf1136U, 0x3c24ba003ca4ba00U,
  0x3d9ddcebbcdba2abU, 0xbc8945ab3d2b9716U, 0x3cdba2ab3c96ffd6U, 0x3cb2742b3d5ba2abU,
  0x3d0268963d7df416U, 0xbcdba2abbb5ba2abU, 0x3d16ffd63ba4ba00U, 0x3cdba2ab3d85d720U,
  0x3d16ffd63cf71700U, 0x3ccde8803adba2abU, 0xbc402e563ccde880U, 0xbb5ba2ab3ca4ba00U,
  0x3d8268963dd4c596U, 0xbc402e56bd1022c0U, 0x3db2742b3c0945abU, 0xbd4de880bd8945abU,
  0xbcc02e56bd4de880U, 0xbd7df4163d402e56U, 0x3d1022c03d5ba2abU, 0x3c402e56bd5ba2abU,
  0x3d1ddceb00000000U, 0x3d8945abU, 0xbd695cd6bba4ba00U, 0x3d7039eb3d627fc0U,
  0x3db951403d4de880U, 0x3d402e563dc02e56U, 0xbd2b97163ce95cd6U, 0xbd7039ebbd54c596U,
  0x3d8945abbd24ba00U, 0x3c0945abbcf71700U, 0xbd9022c03d1022c0U, 0xbd9022c0bd627fc0U,
  0x3adba2abbd1ddcebU, 0xbcc02e56bd85d720U, 0xbca4ba00bc771700U, 0xbd7df41600000000U,
  0x3d93914bbca4ba00U, 0x3c24ba003adba2abU, 0x3d96ffd63d16ffd6U, 0x3ce95cd63d627fc0U,
  0x3cdba2ab3d24ba00U, 0x3c24ba00bd7df416U, 0x3d8cb436bd8cb436U, 0xbd9022c0bcdba2abU,
  0xbd0945ab3c402e56U, 0xbd7039ebbd7df416U, 0xbc0945abbd54c596U, 0xbca4ba00bda8288bU,
  0x3c402e563c24ba00U, 0xbd627fc03d54c596U, 0x3d85d7203daf05a0U, 0xbadba2ab3ddf1136U,
  0xbd54c5963d7df416U, 0x3c24ba00bd8945abU, 0xbd85d7203d826896U, 0x3cc02e56bd9022c0U,
  0xbd5ba2ab3b5ba2abU, 0x3d24ba00badba2abU, 0xbdc39ce0bdab9716U, 0xbcf7170000000000U,
  0xbdc39ce0bce95cd6U, 0xbd1022c0bcc02e56U, 0x3b5ba2ab3c5ba2abU, 0x3cf71700bd0945abU,
  0xbc8945abbd4de880U, 0x3c7717003d1ddcebU, 0xbc24ba00bd026896U, 0x3d85d7203d8945abU,
  0x3d0268963d771700U, 0x3d4de880bd54c596U, 0xbdb2742bbd402e56U, 0xbd1ddcebbd026896U,
  0xbd026896bdaf05a0U, 0x3d395140bc402e56U, 0xbdb5e2b6bc402e56U, 0xbd395140bdcde880U,
  0xbd695cd6bd1ddcebU, 0x3d24ba003ca4ba00U, 0xbd85d720bd96ffd6U, 0x3c5ba2ab3d96ffd6U,
  0x3d96ffd63cf71700U, 0xbc0945ab3d9022c0U, 0xbd96ffd63cdba2abU, 0xbdb2742b00000000U,
  0xbd4de880bd627fc0U, 0x3c402e563d8cb436U, 0x3c96ffd63d93914bU, 0xbadba2ab3d826896U,
  0xbd2b97163c96ffd6U, 0xbd93914b3d96ffd6U, 0x3bdba2ab3d7039ebU, 0x3c7717003cb2742bU,
  0xbd93914bbcdba2abU, 0x3bdba2abbd8cb436U, 0x3d54c596bc8945abU, 0x3ca4ba003d026896U,
  0xbd32742b3d2b9716U, 0xbd24ba00bb5ba2abU, 0x3cc02e563d85d720U, 0x3ce95cd63c402e56U,
  0x3dcde8803d85d720U, 0x3ce95cd6bc0945abU, 0xbda4ba00bb5ba2abU, 0xbce95cd6bc5ba2abU,
  0xbc402e56bd54c596U, 0xbc24ba00bcdba2abU, 0xbd395140bd24ba00U, 0x3c5ba2ab3d402e56U,
  0x3c96ffd6bc24ba00U, 0xbd7039ebbca4ba00U, 0xbce95cd63d771700U, 0xbdb5e2b63bdba2abU,
  0xbcdba2abbda4ba00U, 0xbccde880bc96ffd6U, 0xbdb2742bbd9022c0U, 0xbd2b9716bdab9716U,
  0x3d5ba2abbd1022c0U, 0x3c402e56bdaf05a0U, 0x3d0268963cb2742bU, 0x3b5ba2ab3d695cd6U,
  0x3d7df4163d54c596U, 0x3d395140bcc02e56U, 0x3ce95cd63d1ddcebU, 0x3ba4ba00bd16ffd6U,
  0xbc0945abbd402e56U, 0xbd24ba00badba2abU, 0x3d395140bdb5e2b6U, 0xbd0945abbba4ba00U,
  0x3ba4ba00bcf71700U, 0xbd402e563d54c596U, 0x3d7039ebbc24ba00U, 0x3c771700bba4ba00U,
  0xbd4de8803c8945abU, 0xbd771700U, 0x3d5ba2abbd627fc0U, 0x3c5ba2abbd8945abU,
  0xbbdba2ab00000000U, 0xbc0945abbcf71700U, 0x3d0268963c24ba00U, 0xbd8cb436bc0945abU,
  0x3c5ba2ab3c402e56U, 0xbd7039eb3adba2abU, 0x3cc02e563cdba2abU, 0x3cf717003d7df416U,
  0xbc0945abbd8945abU, 0x3d54c596bc402e56U, 0xbd2b9716bce95cd6U, 0xbadba2ab3d470b6bU,
  0xbc0945abbd54c596U, 0xbbdba2abbd96ffd6U, 0x3d9022c03da14b76U, 0xbd93914b3d470b6bU,
  0xbc96ffd6bd1022c0U, 0xbd7039eb3d395140U, 0x3c96ffd63d402e56U, 0xbc402e563d470b6bU,
  0x3d402e56bd24ba00U, 0xbba4ba00bd1ddcebU, 0xbc7717003c0945abU, 0xbba4ba00bd5ba2abU,
  0x3d402e563d0945abU, 0xbc5ba2ab3ccde880U, 0xbba4ba00bba4ba00U, 0xbd85d720bd2b9716U,
  0x3d8945ab3d93914bU, 0x3d7717003d8cb436U, 0xbdb2742bbce95cd6U, 0xbd5ba2ab3d16ffd6U,
  0xbca4ba003adba2abU, 0x3c24ba00bd7039ebU, 0xbdab9716bd8cb436U, 0xbda8288b3d026896U,
  0xbc0945abbd026896U, 0x3d8268963b5ba2abU, 0xbc402e563d93914bU, 0xbd627fc03d7039ebU,
  0x3d402e56bd24ba00U, 0x3d54c596bd470b6bU, 0xbd16ffd6bc24ba00U, 0xbd85d720bb5ba2abU,
  0xbd1022c0bd7df416U, 0xbd7df41600000000U, 0xbba4ba00bcdba2abU, 0xbd695cd63ca4ba00U,
  0xbda8288bbce95cd6U, 0x3d54c596bd9a6e60U, 0xbc0945ab3ce95cd6U, 0x3d470b6b00000000U,
  0x3d0945abbadba2abU, 0x3d9022c03d32742bU, 0xbd5ba2abbce95cd6U, 0x3c24ba00bce95cd6U,
  0x3cb2742bbc96ffd6U, 0x3cf71700bba4ba00U, 0xbb5ba2abbc402e56U, 0xbd16ffd6bd1022c0U,
  0x3d16ffd6bccde880U, 0xbba4ba003d8945abU, 0x3d24ba003d24ba00U, 0xbd24ba003d402e56U,
  0x3d16ffd6bd96ffd6U, 0x3d8268963d026896U, 0x3cc02e563d627fc0U, 0x3d026896bd93914bU,
  0x3d8945ab3cc02e56U, 0xbd7df416bbdba2abU, 0xbd826896bd1022c0U, 0xbd695cd63c8945abU,
  0xbccde880bd96ffd6U, 0x3adba2ab3d16ffd6U, 0xbd3951403ce95cd6U, 0x3cdba2abbd395140U,
  0x3d7df4163ce95cd6U, 0x3bdba2abbd402e56U, 0xbc0945abbadba2abU, 0xbd695cd6bcb2742bU,
  0x3cf71700bd826896U, 0x3ce95cd6bba4ba00U, 0x3d5ba2ab3d5ba2abU, 0xbd4de880bd96ffd6U,
  0xbd395140bd8cb436U, 0xbdf039ebbdab9716U, 0xbca4ba00bd2b9716U, 0xbd4de8803db5e2b6U,
  0x3ca4ba003ba4ba00U, 0x3d2b97163cb2742bU, 0xbd8cb4363d16ffd6U, 0xbd54c5963d5ba2abU,
  0x3adba2abbdd4c596U, 0xbc24ba00bd96ffd6U, 0x3d24ba003d7df416U, 0x3d1022c03d93914bU,
  0x3d16ffd63d695cd6U, 0xbc5ba2abbd8945abU, 0x3d402e563d470b6bU, 0x3bdba2abbd826896U,
  0xbd32742b3bdba2abU, 0x3d395140bd395140U, 0xbce95cd63d026896U, 0x3d85d7203c0945abU,
  0xbd93914b3c8945abU, 0x3d026896bba4ba00U, 0xbd93914bbdbcbfcbU, 0xbd5ba2abbdcde880U,
  0x3d24ba00bdab9716U, 0x3d24ba00bd32742bU, 0x3d402e56bc402e56U, 0xbd771700bc402e56U,
  0xbd8945abbbdba2abU, 0xbdc70b6b3c5ba2abU, 0xbc8945ab3d4de880U, 0xbc96ffd6bc402e56U,
  0x3d8268963d402e56U, 0x3d627fc0U, 0xbccde8803ce95cd6U, 0x3d026896bb5ba2abU,
  0x3adba2ab3d4de880U, 0xbd16ffd6bd9ddcebU, 0x3d7039eb3b5ba2abU, 0x3d8945ab3d32742bU,
  0x3c8945ab3d1022c0U, 0xbdab97163cdba2abU, 0xbc5ba2abbbdba2abU, 0xbb5ba2abbc402e56U,
  0x3d16ffd6bd85d720U, 0x3d2b9716bd54c596U, 0xbccde880bcc02e56U, 0x3d24ba00bd32742bU,
  0x3ce95cd6bd85d720U, 0xbd2b97163adba2abU, 0x3ccde880bdca79f6U, 0x3d1022c0bb5ba2abU,
  0xbd8cb4363ce95cd6U, 0x3cf71700bd54c596U, 0xbd5ba2ab3d1022c0U, 0xbd470b6bbc402e56U,
  0x3d16ffd6bd8cb436U, 0xbd8cb4363c96ffd6U, 0x3c8945abbc0945abU, 0xbd96ffd63d24ba00U,
  0xbd627fc03c5ba2abU, 0x3cb2742b3c771700U, 0x3c8945abbd1022c0U, 0xbccde880bd16ffd6U,
  0xbd24ba00bba4ba00U, 0xbd402e56bd2b9716U, 0x3d0268963c402e56U, 0x3d1022c03d32742bU,
  0x3d627fc0bd7039ebU, 0x3d470b6bbd395140U, 0xbcf717003c0945abU, 0xbd1ddcebbd026896U,
  0x3da14b76bda4ba00U, 0xbcb2742b3d32742bU, 0xbcdba2ab3cf71700U, 0x3d24ba003d16ffd6U,
  0xbd826896bc24ba00U, 0xbd9022c0bd402e56U, 0xbcdba2abbb5ba2abU, 0xbd32742b3d7df416U,
  0xbd3951403d4de880U, 0xbba4ba003d4de880U, 0xbd771700bcdba2abU, 0x3bdba2abbd0945abU,
  0xbb5ba2abbd1ddcebU, 0xbd695cd6bc96ffd6U, 0x3da4ba00bd0945abU, 0x3cb2742b3bdba2abU,
  0xbcdba2abbd695cd6U, 0xbce95cd63db2742bU, 0xbd9022c0bda4ba00U, 0x3d1ddcebbd54c596U,
  0x3d402e563c0945abU, 0xbd7039eb3d695cd6U, 0x3c0945ab3cb2742bU, 0xbda14b76bd8945abU,
  0xbd7039ebbca4ba00U, 0x3ba4ba003d2b9716U, 0xbd8cb4363c0945abU, 0x3d96ffd63ca4ba00U,
  0x3d7717003ce95cd6U, 0xbd32742b3d24ba00U, 0xbd2b97163d627fc0U, 0x3d0945ab3d826896U,
  0xbc771700bda14b76U, 0x3d402e56bd026896U, 0xbc96ffd63d2b9716U, 0x3c96ffd6bc96ffd6U,
  0xbd771700bd7df416U, 0xbcf71700bd0945abU, 0xbd7717003d026896U, 0xbd8cb436bd1ddcebU,
  0xbda14b76bdb2742bU, 0xbcdba2ab3ca4ba00U, 0x3d93914bbb5ba2abU, 0xbd9022c0bd470b6bU,
  0x3da8288bbd9a6e60U, 0x3ce95cd63d395140U, 0xbdab97163d1ddcebU, 0x3adba2abbd470b6bU,
  0x3d695cd63d627fc0U, 0xbd9a6e603d1ddcebU, 0xbd5ba2ab3d402e56U, 0xbd8cb4363d1ddcebU,
  0x3d402e56bc771700U, 0xbd1ddceb3d402e56U, 0x3bdba2abbdb5e2b6U, 0xbccde8803b5ba2abU,
  0x3d0268963dfdf416U, 0x3d54c5963d2b9716U, 0xbc24ba003bdba2abU, 0xbcc02e563b5ba2abU,
  0xbc8945abbd16ffd6U, 0x3e0e6b7b3d9ddcebU, 0xbc8945abbd026896U, 0xbda8288b3c0945abU,
  0xbd7717003d695cd6U, 0x3d9ddcebbd826896U, 0xbc402e563d826896U, 0x3d402e56bd0945abU,
  0xbd9022c0bc0945abU, 0x3da14b763d627fc0U, 0x3d32742b3db5e2b6U, 0xbdd1570bbda14b76U,
  0xbd8945abbd24ba00U, 0x3d85d7203b5ba2abU, 0x3db2742bU, 0x3c402e56bd1022c0U,
  0xbc5ba2ab3d54c596U, 0xbcb2742bbd24ba00U, 0x3d32742bbcf71700U, 0xbcf71700bd695cd6U,
  0x3ce95cd6bc5ba2abU, 0xbc0945abbd9a6e60U, 0xbd8cb4363c402e56U, 0x3d395140bcf71700U,
  0xbd0268963d771700U, 0x3cdba2abbcf71700U, 0xbd402e56bd8cb436U, 0xbdb2742bbddba2abU,
  0x3d695cd6bba4ba00U, 0x3db5e2b63d395140U, 0x3d7df416bb5ba2abU, 0x3c402e563c771700U,
  0xbd93914b3bdba2abU, 0x3ccde8803d026896U, 0xbd7039eb3d1022c0U, 0xbd0945abbc8945abU,
  0x3d627fc0bcdba2abU, 0x3d627fc0bc0945abU, 0x3db95140bbdba2abU, 0xbd627fc03d026896U,
  0x3c5ba2abU, 0xbde5ee4b3ca4ba00U, 0x3d9ddceb3b5ba2abU, 0xbcb2742bbdb2742bU,
  0x3d16ffd63dfa858bU, 0x3c402e563d8945abU, 0xbd24ba003c96ffd6U, 0xbd771700bc0945abU,
  0x3b5ba2ab3c96ffd6U, 0xbd9022c03d627fc0U, 0x3db951403b5ba2abU, 0x3d85d7203b5ba2abU,
  0x3d32742b3de5ee4bU, 0x3d24ba003cf71700U, 0xbce95cd63d7df416U, 0xbdb2742b3cb2742bU,
  0xbd24ba00bc0945abU, 0x3c771700bd7039ebU, 0x3db951403dbcbfcbU, 0xbd7df4163ddba2abU,
  0xbdfa858bbc402e56U, 0xbdaf05a0bd85d720U, 0x3c96ffd63d24ba00U, 0x3c24ba00bce95cd6U,
  0x3d85d7203cf71700U, 0xbd24ba00bca4ba00U, 0x3d2b97163c771700U, 0x3d16ffd63d8945abU,
  0xbd026896bc402e56U, 0xbc96ffd6bcdba2abU, 0x3d16ffd6bde27fc0U, 0x3dab9716bd54c596U,
  0x3d9a6e603ddba2abU, 0xbd9022c0bd695cd6U, 0xbe0afcf0bdc39ce0U, 0xbd32742b3c402e56U,
  0xbd16ffd63c96ffd6U, 0x3d16ffd6U, 0xbca4ba003d771700U, 0x3c0945abbce95cd6U,
  0xbc96ffd6bd695cd6U, 0xbc8945ab3d402e56U, 0x3cf71700bd96ffd6U, 0x3bdba2ab3d7df416U,
  0xbd9022c0bcb2742bU, 0x3da14b76bd771700U, 0x3dc02e563c771700U, 0xbd7717003d7df416U,
  0x3c402e563d695cd6U, 0xbc96ffd6bdb95140U, 0xbce95cd6bd16ffd6U, 0xbda14b76bce95cd6U,
  0xbbdba2abbd5ba2abU, 0x3cf717003d4de880U, 0x3d395140bc96ffd6U, 0x3d9022c0bc402e56U,
  0xbc0945ab3d4de880U, 0x3d2b9716bd395140U, 0x3ba4ba00bd1ddcebU, 0xbd1022c0U,
  0x3d0268963c771700U, 0xbc24ba003d93914bU, 0xbdb2742bbd85d720U, 0xbd4de880bd32742bU,
  0x3db2742b3d85d720U, 0xbd54c596bdaf05a0U, 0x3d2b9716bdaf05a0U, 0x3dc02e563d470b6bU,
  0x3cf71700bd1ddcebU, 0xbadba2ab3d026896U, 0xbd695cd63c24ba00U, 0xbba4ba00bcf71700U,
  0x3d16ffd6bd0945abU, 0x3daf05a03dab9716U, 0xbbdba2abbcb2742bU, 0xbbdba2ab3ce95cd6U,
  0x3d7df416bd0945abU, 0x3d1022c0bd627fc0U, 0xbd402e56bcc02e56U, 0xbc96ffd6bd5ba2abU,
  0x3de27fc0bd826896U, 0x3d2b97163c771700U, 0x3ca4ba00bca4ba00U, 0x3d5ba2ab3d0945abU,
  0x3d93914b3c0945abU, 0xbd96ffd63cf71700U, 0x3c8945ab3b5ba2abU, 0xbd1022c03c402e56U,
  0xbccde880bd026896U, 0xbcc02e563ca4ba00U, 0x3da4ba003d7039ebU, 0xbdd4c5963d771700U,
  0x3d402e563cc02e56U, 0x3d32742bbc0945abU, 0xbadba2abbd026896U, 0xbc402e56bc771700U,
  0x3cc02e563d96ffd6U, 0x3dab9716bd7df416U, 0xbd7039eb3dcde880U, 0xbd96ffd63ccde880U,
  0x3c96ffd6bc402e56U, 0xbd16ffd6bdcde880U, 0xbd826896bcc02e56U, 0xbd0945ab3c402e56U,
  0xbc8945abbd1022c0U, 0xbd85d7203d470b6bU, 0xbdb5e2b6bd1022c0U, 0xbd32742bbd695cd6U,
  0x3da14b76bd24ba00U, 0xbd7717003da14b76U, 0x3d826896bd85d720U, 0xbcb2742bbbdba2abU,
  0x3cc02e563cc02e56U, 0x3c24ba00bd7df416U, 0xbc0945abbd627fc0U, 0xbd0268963adba2abU,
  0xbda8288bbd24ba00U, 0x3d627fc03d0945abU, 0xbc402e56bd395140U, 0x3d2b9716bca4ba00U,
  0x3d771700bd2b9716U, 0x3cdba2abbd8cb436U, 0x3d5ba2ab3d5ba2abU, 0xbdb951403cf71700U,
  0x3d9022c0bd395140U, 0xbd395140bdab9716U, 0x3d24ba003c771700U, 0x3d5ba2ab3c402e56U,
  0x3d0945abbd1ddcebU, 0xbcb2742bbd93914bU, 0x3d1022c0bdc39ce0U, 0xbbdba2ab3ccde880U,
  0x3d96ffd6bd2b9716U, 0x3c0945abbd695cd6U, 0x3d695cd63d24ba00U, 0x3ca4ba00bd16ffd6U,
  0xbcf71700bd8945abU, 0xbda8288bbd32742bU, 0xbd24ba00bc96ffd6U, 0x3cc02e563c402e56U,
  0xbc0945ab3d0945abU, 0x3d470b6b3d16ffd6U, 0xbc24ba003c0945abU, 0x3cf71700bcc02e56U,
  0xbd9ddceb3d32742bU, 0x3cb2742bbc8945abU, 0x3d1022c03d402e56U, 0x3c402e563d4de880U,
  0xbd470b6b3ba4ba00U, 0x3d24ba003c96ffd6U, 0xbd470b6b3dab9716U, 0xbd96ffd63c8945abU,
  0x3ccde880bd470b6bU, 0x3adba2abbc5ba2abU, 0xbd1ddcebbd9a6e60U, 0x3d9022c0bd8945abU,
  0xbd93914b3bdba2abU, 0x3d4de8803c96ffd6U, 0x3d826896bc8945abU, 0x3bdba2ab3d7df416U,
  0xbd7df416bd470b6bU, 0x3d627fc03d627fc0U, 0xbd24ba00bc771700U, 0x3d395140bc0945abU,
  0x3d2b9716bd627fc0U, 0xbcb2742b3d54c596U, 0x3dbcbfcb3d16ffd6U, 0xbd826896bd1ddcebU,
  0x3ca4ba00bcb2742bU, 0xbda4ba00bce95cd6U, 0xbd8945ab3c0945abU, 0xbd627fc03d54c596U,
  0x3c402e563d32742bU, 0x3ba4ba00bc402e56U, 0x3c96ffd63ca4ba00U, 0xbd2b9716bd8cb436U,
  0xbc5ba2abbd1022c0U, 0x3ce95cd6bd16ffd6U, 0xbd627fc0bd402e56U, 0xbdc70b6bbd402e56U,
  0xbd4de880bdc02e56U, 0x3c0945abbc96ffd6U, 0xbcdba2ab3c96ffd6U, 0xbbdba2abbc96ffd6U,
  0x3c8945abbd402e56U, 0x3cf717003d54c596U, 0x3c24ba003c402e56U, 0x3d0945abbd627fc0U,
  0x3d026896bc402e56U, 0xbd695cd63d85d720U, 0x3d5ba2ab3c8945abU, 0x3da8288b3d826896U,
  0x3db5e2b63adba2abU, 0xbd93914b3cc02e56U, 0xbda8288bbdbcbfcbU, 0xbd7039ebbdab9716U,
  0xbce95cd6bcc02e56U, 0xbdab9716bd695cd6U, 0xbd3951403c402e56U, 0xbd7039eb3d695cd6U,
  0x3d85d720bd402e56U, 0x3ba4ba003d9a6e60U, 0x3d9a6e60bd1022c0U, 0x3d96ffd6bd8945abU,
  0x3d85d7203cdba2abU, 0x3c0945abbcb2742bU, 0x3ce95cd6bd8945abU, 0xbd1ddceb3d24ba00U,
  0x3d8945abbd2b9716U, 0x3ca4ba0000000000U, 0x3da8288bbc96ffd6U, 0x3d9a6e603dbcbfcbU,
  0x3d9ddceb3d8cb436U, 0xbcc02e563ba4ba00U, 0x3d93914bbd026896U, 0x3d9ddcebbba4ba00U,
  0x3adba2abbce95cd6U, 0x3d695cd63c8945abU, 0x3cc02e56bd1022c0U, 0xbd16ffd6bd9a6e60U,
  0x3d24ba003d627fc0U, 0xbd026896bc402e56U, 0x3d96ffd6bcb2742bU, 0x3d0268963d16ffd6U,
  0x3cc02e563adba2abU, 0xbd4de8803d8cb436U, 0x3d9a6e603d402e56U, 0xbd1ddceb3e026896U,
  0xbd7df4163d826896U, 0xbc771700bd9a6e60U, 0x3d2b9716bcdba2abU, 0xbd96ffd6bd470b6bU,
  0x3c402e563d395140U, 0xbd9ddceb3cb2742bU, 0xbd85d720bd85d720U, 0xbda14b76bd771700U,
  0x3c402e56bd8945abU, 0xbadba2abbd026896U, 0xbcdba2abbc24ba00U, 0x3db5e2b63c24ba00U,
  0x3d026896U, 0xbdaf05a0bd54c596U, 0xbd4de8803b5ba2abU, 0xbc8945abbdab9716U,
  0xbd7717003cb2742bU, 0x3adba2abbd695cd6U, 0x3c5ba2abbd470b6bU, 0x3c5ba2abbd8945abU,
  0xbc0945abbd026896U, 0xbd54c596bd8cb436U, 0xbd5ba2abbd026896U, 0x3ccde8803cc02e56U,
  0x3d8cb436bcdba2abU, 0x3daf05a03d9a6e60U, 0x3d24ba00bcb2742bU, 0x3c8945abbd2b9716U,
  0xbdbcbfcb3ca4ba00U, 0xbccde880bbdba2abU, 0x3d402e56bdb95140U, 0x3ca4ba00bcb2742bU,
  0xbd0268963d8945abU, 0x3d7039eb3d2b9716U, 0x3d402e563cf71700U, 0xbc0945abbdc39ce0U,
  0x3cb2742b3cdba2abU, 0xbd32742b3d9ddcebU, 0xbb5ba2ab3ce95cd6U, 0x3d9ddcebbadba2abU,
  0xbcf71700bccde880U, 0x3cc02e56bd16ffd6U, 0x3c402e56bd54c596U, 0xbd54c5963d695cd6U,
  0xbd627fc03d16ffd6U, 0x3d5ba2abbd7039ebU, 0x3c402e563d470b6bU, 0xbd627fc0bd93914bU,
  0xbd16ffd6bccde880U, 0x3d1ddceb3c771700U, 0x3dbcbfcbbd0945abU, 0xbcdba2ab3d7df416U,
  0x3c0945ab3d1ddcebU, 0x3d1022c03d1022c0U, 0x3d395140bcb2742bU, 0xbcdba2ab3d24ba00U,
  0xbd470b6bbc8945abU, 0x3d93914b3cb2742bU, 0xbc5ba2ab3ce95cd6U, 0x3d026896badba2abU,
  0xbdab97163d8cb436U, 0x3c771700bce95cd6U, 0x3d0945abbd5ba2abU, 0xbd5ba2ab3d627fc0U,
  0x3d695cd6bd695cd6U, 0x3c96ffd63bdba2abU, 0x3cb2742b3c8945abU, 0xbd026896bccde880U,
  0x3d0945abbd2b9716U, 0xbdbcbfcb3d16ffd6U, 0xbdca79f63d24ba00U, 0xbd16ffd63d1ddcebU,
  0xbdaf05a03d395140U, 0x3c96ffd6bd8cb436U, 0x3d32742bbccde880U, 0x3d1022c0bc771700U,
  0xbb5ba2abbd2b9716U, 0xbce95cd63bdba2abU, 0xbb5ba2ab3c5ba2abU, 0xbcdba2ab3d85d720U,
  0x3d7717003d54c596U, 0x3d026896bd32742bU, 0xbd32742b00000000U, 0xbdd83420bccde880U,
  0xbd695cd6bd7df416U, 0xbd3951403d771700U, 0xbba4ba003c402e56U, 0x3b5ba2abbd0945abU,
  0xbdab97163d7df416U, 0x3d9022c0bd2b9716U, 0x3ccde8803d395140U, 0xbd9a6e60bd4de880U,
  0xbc7717003d395140U, 0xbd32742b3dab9716U, 0x3cc02e563ce95cd6U, 0xbc24ba00bd16ffd6U,
  0xbcb2742bbd1ddcebU, 0xbd470b6b3c771700U, 0xbc402e563c771700U, 0x3d627fc0bc0945abU,
  0xbc24ba003d771700U, 0x3d32742b3d2b9716U, 0xbda14b76bbdba2abU, 0x3d5ba2abbd85d720U,
  0x3c8945ab3d7039ebU, 0xbd1022c03d2b9716U, 0xbd16ffd6bd96ffd6U, 0xbce95cd6bc402e56U,
  0x3d24ba0000000000U, 0xbd7039ebbd7039ebU, 0x3adba2ab3d627fc0U, 0x3adba2abbd5ba2abU,
  0xbc5ba2ab3c0945abU, 0xbc0945ab00000000U, 0xbd395140bc5ba2abU, 0x3d7039ebbd9a6e60U,
  0xbcc02e563d32742bU, 0x3adba2abbd1ddcebU, 0xbd5ba2ab3cc02e56U, 0x3d32742b3ccde880U,
  0x3d24ba00bd1ddcebU, 0xbb5ba2abbd026896U, 0x3d695cd6bd7df416U, 0x3d026896bd771700U,
  0xbd7df416bd5ba2abU, 0x3cf717003c0945abU, 0xbdca79f6bd470b6bU, 0xbbdba2abbd1022c0U,
  0x3d32742b3d96ffd6U, 0xbda4ba003d8cb436U, 0x3cc02e563d4de880U, 0x3bdba2ab3d0945abU,
  0x3cc02e563c24ba00U, 0xbd402e563ce95cd6U, 0x3d0945abU, 0xbc8945abbcb2742bU,
  0x3c96ffd63cf71700U, 0x3adba2abbc402e56U, 0x3d4de8803cc02e56U, 0xbd402e56bd0945abU,
  0xbd8cb4363d771700U, 0xbd0945ab3d2b9716U, 0xbd0268963cf71700U, 0xbd9ddceb3d0945abU,
  0x3cf717003d4de880U, 0xbc96ffd63cb2742bU, 0x3b5ba2ab00000000U, 0x3d695cd63d16ffd6U,
  0x3d5ba2abbcf71700U, 0x3d54c5963c24ba00U, 0xbc0945abbd1022c0U, 0x3d39514000000000U,
  0xbd4de880bd395140U, 0x3d8945ab3d826896U, 0xbd8cb436bc402e56U, 0x3d54c5963cf71700U,
  0x3d24ba003d93914bU, 0xbd7df416bd9ddcebU, 0x3cdba2abbadba2abU, 0x3d85d720bbdba2abU,
  0x3ccde880bc5ba2abU, 0xbb5ba2ab3d32742bU, 0x3d85d7203d85d720U, 0x3cc02e56bcdba2abU,
  0xbd9a6e60bce95cd6U, 0x3d32742b3ca4ba00U, 0xbd470b6b3d24ba00U, 0xbc771700bd9ddcebU,
  0xbd0945abbd026896U, 0xbd402e563d695cd6U, 0xbc8945ab3d8cb436U, 0xbda8288b3d4de880U,
  0x3d0268963d395140U, 0xbc402e563d402e56U, 0xbd96ffd63ca4ba00U, 0xbd4de880bce95cd6U,
  0xbce95cd6bc402e56U, 0x3ccde880bd8945abU, 0x3b5ba2ab3d1022c0U, 0x3d7039ebbc771700U,
  0x3d8cb4363d771700U, 0x3d1ddcebbd026896U, 0x3d2b97163db95140U, 0x3d0268963d026896U,
  0xbd2b97163dc70b6bU, 0x3d695cd63da8288bU, 0xbccde8803d1022c0U, 0xbcc02e563da8288bU,
  0xbd771700bba4ba00U, 0x3c96ffd63d2b9716U, 0x3d7df4163dab9716U, 0x3c0945abbadba2abU,
  0x3c5ba2ab3d0945abU, 0xbd1ddceb3da8288bU, 0xbd24ba003d395140U, 0xbd32742b3d16ffd6U,
  0xbbdba2ab3d0945abU, 0xbccde880bccde880U, 0x3c7717003d695cd6U, 0x3d4de8803bdba2abU,
  0xbce95cd6bd4de880U, 0x3b5ba2ab3c0945abU, 0xbda8288bbca4ba00U, 0xbc402e56bd5ba2abU,
  0x3cc02e56bc96ffd6U, 0x3c8945abbc24ba00U, 0xbd0945abbd24ba00U, 0x3ca4ba003d1022c0U,
  0xbc96ffd6bc402e56U, 0x3d026896bc0945abU, 0xbd0945abbd16ffd6U, 0xbd695cd6bd395140U,
  0x3da8288b3d470b6bU, 0xbd16ffd6bc24ba00U, 0xbadba2abbccde880U, 0x3dc39ce0bccde880U,
  0xbc96ffd63d1ddcebU, 0xbd402e56badba2abU, 0xbcc02e563d7039ebU, 0xbd1ddceb3d85d720U,
  0xbd5ba2ab3d9a6e60U, 0xbadba2abbd8945abU, 0xbd470b6b3cb2742bU, 0x3ccde880bc402e56U,
  0x3cdba2ab3d627fc0U, 0x3c5ba2ab3c0945abU, 0xbd16ffd63da14b76U, 0x3d2b97163d32742bU,
  0x3ce95cd6bd771700U, 0x3d9a6e603d627fc0U, 0xbd1ddcebbd402e56U, 0xbcb2742bbd5ba2abU,
  0x3c96ffd63d771700U, 0xbd5ba2abbd54c596U, 0xbc8945abbce95cd6U, 0x3d93914b3d402e56U,
  0xbd3951403c96ffd6U, 0xbd627fc03ba4ba00U, 0xbb5ba2ab3ccde880U, 0xbc5ba2ab3c5ba2abU,
  0x3d627fc03d695cd6U, 0x3d24ba003d32742bU, 0x3d7039ebU, 0x3d93914b3d695cd6U,
  0x3d026896bd96ffd6U, 0x3d627fc0bd4de880U, 0x3b5ba2ab3d93914bU, 0x3d8945ab3b5ba2abU,
  0xbc5ba2ab3d32742bU, 0x3d0945abbdab9716U, 0xbbdba2ab3da4ba00U, 0x3d1ddceb3b5ba2abU,
  0x3d627fc0bd4de880U, 0x3d85d7203d8cb436U, 0xbd16ffd6bcf71700U, 0xbd32742bbd54c596U,
  0x3ca4ba003d24ba00U, 0x3d1022c03d026896U, 0xbd16ffd63ca4ba00U, 0x3d4de8803cc02e56U,
  0x3d93914b3d627fc0U, 0xbd1ddceb3d54c596U, 0x3c96ffd63da14b76U, 0xbba4ba00bd2b9716U,
  0x3d1ddceb3b5ba2abU, 0xbc5ba2abbd470b6bU, 0xbbdba2ab3c24ba00U, 0xbd32742b3c402e56U,
  0xbccde8803cc02e56U, 0xbd0945abbcc02e56U, 0xbcc02e563d4de880U, 0x3d627fc03c5ba2abU,
  0xbba4ba003d7df416U, 0xbd9a6e60bd24ba00U, 0xbd5ba2abbd54c596U, 0x3da14b76bd1ddcebU,
  0xbd32742b3dab9716U, 0xbb5ba2abbd470b6bU, 0x3cf717003da14b76U, 0x3d826896bd9ddcebU,
  0x3cb2742b3da8288bU, 0xbd402e563c0945abU, 0xbb5ba2ab3bdba2abU, 0x3db951403d8cb436U,
  0xbc24ba003c96ffd6U, 0x3dc39ce0bc24ba00U, 0xbba4ba0000000000U, 0x3c402e563d32742bU,
  0xbbdba2abbd93914bU, 0x3cf717003c402e56U, 0x3b5ba2abbd395140U, 0x3cc02e563cdba2abU,
  0xbd32742b3d85d720U, 0xbc402e563c771700U, 0x3ca4ba003d402e56U, 0xbd3951403d9022c0U,
  0xbca4ba00bd2b9716U, 0xbd0268963d0945abU, 0x3d402e563c0945abU, 0xbc8945ab3adba2abU,
  0x3d32742b3d5ba2abU, 0xbc7717003ce95cd6U, 0x3bdba2abbc8945abU, 0xbd4de880badba2abU,
  0xbd402e563d9022c0U, 0x3ca4ba003d470b6bU, 0xbd8cb4363d826896U, 0xbd24ba003d24ba00U,
  0x3dcde880bc96ffd6U, 0xbc0945ab3cc02e56U, 0xbc0945ab3d695cd6U, 0xbcdba2ab3d93914bU,
  0xbd2b97163c0945abU, 0xbc8945abbb5ba2abU, 0xbc0945ab3dc39ce0U, 0xbd16ffd6bd7df416U,
  0x3adba2ab3ba4ba00U, 0x3cdba2abbd5ba2abU, 0x3d54c5963d2b9716U, 0x3c0945abbd1022c0U,
  0xbd1022c0bd1022c0U, 0x3d0945ab3d5ba2abU, 0x3c24ba003d32742bU, 0x3d4de880bccde880U,
  0xbccde8803d1ddcebU, 0x3d1ddcebbd5ba2abU, 0xbd16ffd63adba2abU, 0xbb5ba2ab3daf05a0U,
  0x3d96ffd6bb5ba2abU, 0xbc5ba2abbc5ba2abU, 0x3d1ddceb3cf71700U, 0x3cdba2abbc8945abU,
  0xbd0945ab3d32742bU, 0x3da14b763cc02e56U, 0xbc24ba00bcf71700U, 0xbd54c5963c0945abU,
  0x3d8945abbd54c596U, 0x3d85d720bb5ba2abU, 0x3d5ba2abbca4ba00U, 0xbd627fc0bcc02e56U,
  0xbd7039eb3d4de880U, 0x3cc02e563c5ba2abU, 0x3c402e563ccde880U, 0xbce95cd6bca4ba00U,
  0x3db5e2b6bc771700U, 0xbc7717003d24ba00U, 0xbdb2742bbd026896U, 0x3d16ffd6bce95cd6U,
  0xbc0945ab3d826896U, 0xbd470b6bbda14b76U, 0x3d4de8803d2b9716U, 0x3d9022c03c402e56U,
  0x3ce95cd63b5ba2abU, 0xbd54c5963d93914bU, 0xbd402e56bd8cb436U, 0xbadba2abbd402e56U,
  0x3d7039eb3c8945abU, 0xbdb5e2b63c24ba00U, 0xbd402e563d16ffd6U, 0x3d1ddcebbd470b6bU,
  0xbe1ddceb3c96ffd6U, 0x3c771700bdf039ebU, 0x3cc02e563d2b9716U, 0xbc5ba2abbccde880U,
  0xbd85d720bc24ba00U, 0x3d9a6e603ce95cd6U, 0x3ca4ba00bcc02e56U, 0x3cb2742b3c402e56U,
  0x3cb2742bbd0945abU, 0xbd695cd6bd16ffd6U, 0x3cb2742b3c0945abU, 0x3c5ba2ab3d395140U,
  0xbd1022c0bd395140U, 0x3c96ffd63d8945abU, 0xbd0268963d9ddcebU, 0xbcb2742b3d395140U,
  0xbb5ba2ab3d826896U, 0xbb5ba2ab3d32742bU, 0xbc0945abbd5ba2abU, 0x3d32742b3d32742bU,
  0xbd54c5963c771700U, 0xbd5ba2abbd0945abU, 0xbc0945abbadba2abU, 0xbccde880bd54c596U,
  0xbd16ffd63d402e56U, 0x3c96ffd6bbdba2abU, 0xbd96ffd6bc402e56U, 0x3d026896bd8cb436U,
  0xbd32742b3cc02e56U, 0xbd7039ebbc0945abU, 0x3d470b6bbd1022c0U, 0xbc8945ab3d470b6bU,
  0x3d627fc03c96ffd6U, 0x3d826896bca4ba00U, 0xbd8cb436U, 0x3d54c596bd695cd6U,
  0xbd0945ab3d0945abU, 0xbd0945abbd24ba00U, 0x3d1ddcebbd9ddcebU, 0x3cdba2ab3c771700U,
  0xbcdba2abbce95cd6U, 0xbd1ddcebbd395140U, 0xbda8288bbd2b9716U, 0xbba4ba00bc5ba2abU,
  0x3cc02e563c402e56U, 0xbd1022c03d470b6bU, 0xbd8268963c0945abU, 0xbc8945abbd402e56U,
  0x3d93914b00000000U, 0x3d7df416bd4de880U, 0xbcc02e563d85d720U, 0x3d4de880bcb2742bU,
  0xbd8945abbd54c596U, 0xbd1ddcebbd695cd6U, 0x3d8cb4363d771700U, 0xbd7039eb3d32742bU,
  0x3d7717003c24ba00U, 0x3d7039eb3d4de880U, 0xbd0945abbd1ddcebU, 0xbce95cd6bd32742bU,
  0xbcf71700bd16ffd6U, 0xbd5ba2ab3adba2abU, 0x3d695cd63d695cd6U, 0xbb5ba2abbd5ba2abU,
  0x3ccde880bd7039ebU, 0x3d24ba00bd9022c0U, 0xbd1ddcebbadba2abU, 0x3c8945ab3d9a6e60U,
  0xbd24ba003d32742bU, 0xbd695cd6bd1022c0U, 0x3d4de880bd32742bU, 0xbcf71700bd695cd6U,
  0xbd771700bd695cd6U, 0xbda4ba003cf71700U, 0x3d402e563d1ddcebU, 0xbcb2742bbd0945abU,
  0xbc24ba003ccde880U, 0xbc0945ab3d395140U, 0xbadba2ab3d627fc0U, 0x3d1ddceb3d5ba2abU,
  0xbccde8803d470b6bU, 0xbcdba2ab3d4de880U, 0x3c0945abbd8cb436U, 0xbcf71700bd2b9716U,
  0x3adba2ab3db5e2b6U, 0xbd4de8803d8cb436U, 0xbd395140bd4de880U, 0xbd8cb4363ca4ba00U,
  0xbadba2abbd771700U, 0xbd0945ab3d402e56U, 0x3d32742b3c771700U, 0xbd93914bbd771700U,
  0xbb5ba2ab3b5ba2abU, 0x3c7717003c5ba2abU, 0x3d470b6b3d8945abU, 0xbcf717003bdba2abU,
  0xbd9a6e60bd93914bU, 0xbba4ba003cdba2abU, 0xbd2b97163c771700U, 0xbd16ffd6bd5ba2abU,
  0xbc8945ab3d402e56U, 0x3d3951403d7df416U, 0x3db951403d96ffd6U, 0x3daf05a03d85d720U,
  0x3b5ba2ab3ba4ba00U, 0x3cb2742bbd0945abU, 0xbc402e563d1ddcebU, 0x3d85d7203cb2742bU,
  0x3d9ddceb3d026896U, 0x3ce95cd63bdba2abU, 0x3d24ba00bd85d720U, 0x3cc02e56bda4ba00U,
  0x3d627fc03d9022c0U, 0xbca4ba003d627fc0U, 0xbce95cd6bd4de880U, 0xbd470b6bbd7df416U,
  0xbd1ddceb3d771700U, 0x3d16ffd63c96ffd6U, 0xbd32742b3ccde880U, 0xbba4ba003d395140U,
  0xbcdba2abbd32742bU, 0xbd32742b3c8945abU, 0x3c0945ab3d5ba2abU, 0xbccde880bd695cd6U,
  0xbd826896bd826896U, 0xbd402e56bcc02e56U, 0xbd0945abbd695cd6U, 0x3ca4ba003d54c596U,
  0xbd32742b3d32742bU, 0xbd5ba2abbd9ddcebU, 0xbd0268963db95140U, 0x3c771700bd2b9716U,
  0xbc24ba003d1ddcebU, 0xbd627fc03ce95cd6U, 0x3cf717003ca4ba00U, 0x3d54c5963cf71700U,
  0x3d470b6b3db2742bU, 0x3cc02e56bc24ba00U, 0xbdaf05a0bd54c596U, 0xbbdba2abbccde880U,
  0x3d8268963ce95cd6U, 0xbb5ba2ab3c24ba00U, 0xbc8945abbc771700U, 0xbcb2742b3d026896U,
  0x3d93914bbba4ba00U, 0xbd5ba2ab3dab9716U, 0x3b5ba2ab3d4de880U, 0x3c402e56bd9022c0U,
  0xbc24ba003d627fc0U, 0x3ca4ba003bdba2abU, 0x3d7039ebU, 0x3d1ddcebbcb2742bU,
  0x3c0945abbc24ba00U, 0x3d627fc0bc771700U, 0x3c24ba003d9ddcebU, 0x3b5ba2ab3adba2abU,
  0xbd8268963d16ffd6U, 0xbd5ba2abbd93914bU, 0x3c24ba003d7039ebU, 0x3d2b9716bd85d720U,
  0xbd7039ebbc96ffd6U, 0x3d1022c03ce95cd6U, 0x3c7717003adba2abU, 0xbce95cd63c402e56U,
  0xbcf717003cf71700U, 0x3d16ffd6bcb2742bU, 0xbd24ba00bd1022c0U, 0xbd0268963d695cd6U,
  0x3d93914b3d1ddcebU, 0x3d7df416U, 0xbd9ddceb3c402e56U, 0xbd32742b3c8945abU,
  0x3d5ba2ab3c96ffd6U, 0x3d24ba003c24ba00U, 0xbd470b6bbd1ddcebU, 0x3d2b9716bd5ba2abU,
  0xbd5ba2abbc0945abU, 0x3d2b9716bd2b9716U, 0xbd771700bd32742bU, 0x3c96ffd63d8cb436U,
  0xbd8cb4363d395140U, 0xbb5ba2abbd4de880U, 0x3d5ba2ab3d026896U, 0xbcb2742bbcf71700U,
  0xbd85d720bd470b6bU, 0x3d627fc03d2b9716U, 0x3b5ba2abbdb95140U, 0xbd85d720bb5ba2abU,
  0xbd96ffd63cb2742bU, 0xbc8945ab3d96ffd6U, 0xbd54c5963d93914bU, 0xbcc02e56bd8cb436U,
  0xbca4ba003ccde880U, 0xbd9022c0bd1022c0U, 0xbd4de8803d1ddcebU, 0xbd1022c03c402e56U,
  0xbb5ba2ab3d9022c0U, 0xbc96ffd6bd395140U, 0x3d2b9716bb5ba2abU, 0xbc24ba00bd395140U,
  0xbd32742bbd54c596U, 0x3ba4ba00bd2b9716U, 0x3c24ba003cf71700U, 0x3d0945ab3ba4ba00U,
  0x3d026896bd7df416U, 0x3c0945ab00000000U, 0xbd470b6b3c771700U, 0x3d54c5963d24ba00U,
  0x3cf71700bcc02e56U, 0xbd3951403d395140U, 0x3d32742b3d8945abU, 0x3b5ba2abbcb2742bU,
  0xbd54c596bd0945abU, 0xbc24ba00bd4de880U, 0xbd4de880bd771700U, 0xbc0945abbd771700U,
  0xbc5ba2ab3bdba2abU, 0x3c8945ab3c24ba00U, 0x3d402e56bcc02e56U, 0x3cdba2ab3cc02e56U,
  0x3ba4ba003d8945abU, 0x3b5ba2ab3ba4ba00U, 0xbd3951403d85d720U, 0xbd771700bd402e56U,
  0xbd5ba2ab3d826896U, 0xbca4ba003cf71700U, 0xbd470b6bbd7039ebU, 0xbce95cd6bc0945abU,
  0xbcf717003c771700U, 0xbb5ba2abbd85d720U, 0x3d9a6e603adba2abU, 0xbba4ba00bd7039ebU,
  0x3d16ffd63d16ffd6U, 0xbd470b6bbadba2abU, 0xbadba2ab3d93914bU, 0xbc96ffd600000000U,
  0x3b5ba2abbd627fc0U, 0xbd8268963d54c596U, 0xbd8268963c5ba2abU, 0xbc0945abbd402e56U,
  0xbd627fc0bc0945abU, 0x3d16ffd6bd24ba00U, 0xbc402e563c96ffd6U, 0xbd1022c0bc0945abU,
  0x3d4de8803c8945abU, 0x3d026896bd695cd6U, 0xbcdba2abbd7df416U, 0x3ca4ba003cc02e56U,
  0xbb5ba2ab3d54c596U, 0xbd3951403c771700U, 0x3c402e563d1022c0U, 0x3d54c5963d85d720U,
  0x3d7717003ba4ba00U, 0xbd9ddcebbcf71700U, 0xbd5ba2ab3d9022c0U, 0xbcdba2abbd24ba00U,
  0x3ba4ba003c96ffd6U, 0xbd32742b00000000U, 0xbc771700bc771700U, 0x3cb2742bbd7df416U,
  0xbd0268963d395140U, 0xbd96ffd6bd627fc0U, 0xbd8cb436bd7df416U, 0xbbdba2abbcb2742bU,
  0x3c0945ab3d9a6e60U, 0x3ccde880bda14b76U, 0x3d9022c03d395140U, 0x3d695cd63d8945abU,
  0xbda8288b3d8945abU, 0xbd0945abbd54c596U, 0x3d32742b3c5ba2abU, 0xbcb2742b3cf71700U,
  0x3cf71700badba2abU, 0x3d32742b3d24ba00U, 0xbd771700bd026896U, 0x3d2b97163d627fc0U,
  0xbd3951403cf71700U, 0xbd695cd6bd16ffd6U, 0x3d026896bd395140U, 0xbd7717003d0945abU,
  0x3d24ba00bce95cd6U, 0x3c24ba00bd5ba2abU, 0x3d4de8803dab9716U, 0x3c402e56bd026896U,
  0x3d85d7203d026896U, 0xbcf717003d7df416U, 0xbd470b6bbd402e56U, 0x3c5ba2abbd8945abU,
  0x3d54c5963c24ba00U, 0x3d32742b3ba4ba00U, 0x3d402e563d1ddcebU, 0x3c24ba00bba4ba00U,
  0x3d8268963d85d720U, 0x3c5ba2abbd1022c0U, 0xbd2b9716bd395140U, 0x3d3951403c96ffd6U,
  0x3cb2742bbd627fc0U, 0x3d9022c03d8cb436U, 0x3ba4ba00bbdba2abU, 0x3d8268963d826896U,
  0x3d7717003c0945abU, 0x3d5ba2abbccde880U, 0xbd24ba003d54c596U, 0xbd402e563c8945abU,
  0x3d9ddcebbd470b6bU, 0xbcdba2ab3da14b76U, 0x3d9022c0bc5ba2abU, 0xbbdba2ab3ccde880U,
  0x3d96ffd6bd8945abU, 0xbc0945ab3c771700U, 0x3d0268963d9a6e60U, 0x3dbcbfcbbb5ba2abU,
  0x3d7df4163ccde880U, 0x3c402e563c771700U, 0xbd8945ab3d2b9716U, 0xbd8945abbd026896U,
  0xbd470b6bbcf71700U, 0xbd1022c03c24ba00U, 0x3d16ffd63d826896U, 0xbccde8803d470b6bU,
  0x3d695cd63d96ffd6U, 0x3c8945ab3d470b6bU, 0x3cdba2ab3d9a6e60U, 0x3d54c5963d9a6e60U,
  0x3d2b97163c8945abU, 0xbd8268963d470b6bU, 0x3c402e5600000000U, 0xbd0945ab3d470b6bU,
  0x3adba2abbd54c596U, 0xbbdba2ab3c0945abU, 0xbc0945abbd5ba2abU, 0x3d8cb436bd4de880U,
  0xbbdba2abbd4de880U, 0xbd026896bd402e56U, 0xbd93914b3d7df416U, 0x3d85d720bba4ba00U,
  0xbccde880bc5ba2abU, 0xbd3951403d826896U, 0xbd16ffd63d470b6bU, 0xbd8cb436bd771700U,
  0xbc771700bd771700U, 0x3d4de8803d0945abU, 0xbd402e56bd16ffd6U, 0x3b5ba2abbd9a6e60U,
  0x3d7717003ba4ba00U, 0xbd1022c0bd4de880U, 0x3ca4ba00bc402e56U, 0x3d470b6b3cdba2abU,
  0x3b5ba2ab3d8cb436U, 0x3cb2742bbd695cd6U, 0xbd1ddcebbca4ba00U, 0x3d8945ab3c771700U,
  0xbca4ba00bce95cd6U, 0xbd627fc03d7039ebU, 0xbccde8803d54c596U, 0xbc402e56bd4de880U,
  0xbd5ba2abbd5ba2abU, 0x3d627fc03cf71700U, 0x3c5ba2ab3d026896U, 0x3d54c596bca4ba00U,
  0xbbdba2abbd54c596U, 0x3d395140bc771700U, 0xbd8268963d54c596U, 0xbca4ba00bd9a6e60U,
  0xbc7717003cf71700U, 0x3d9ddcebbc96ffd6U, 0xbd402e563d026896U, 0x3d395140bd16ffd6U,
  0x3c5ba2abbd9a6e60U, 0xbd470b6bbd627fc0U, 0x3c5ba2abbc8945abU, 0xbca4ba003d470b6bU,
  0x3adba2abbce95cd6U, 0x3d8268963d402e56U, 0xbc402e56bb5ba2abU, 0x3ca4ba00bd7039ebU,
  0x3c5ba2abbbdba2abU, 0xbcf71700bce95cd6U, 0x3cdba2ab3ce95cd6U, 0x3d0945ab3ccde880U,
  0xbd9022c0bc24ba00U, 0xbd0945ab3cb2742bU, 0xbcdba2abbccde880U, 0xbd7717003d395140U,
  0xbcc02e563d026896U, 0x3c24ba00bc5ba2abU, 0x3d54c596bd7df416U, 0x3cc02e563d5ba2abU,
  0x3d7df4163d54c596U, 0xbd32742b3d85d720U, 0xbd9022c03d395140U, 0x3c5ba2ab3d32742bU,
  0x3d0268963c5ba2abU, 0xbcf71700bdaf05a0U, 0xbbdba2ab3d8cb436U, 0xbd3951403d24ba00U,
  0x3c771700bda4ba00U, 0x3d1ddcebbbdba2abU, 0xbd4de8803d0945abU, 0x3d1022c0bc402e56U,
  0xbadba2abbadba2abU, 0xbd7df416bd5ba2abU, 0xbd4de880bd16ffd6U, 0x3d2b97163d5ba2abU,
  0xbd1ddcebbd8945abU, 0xbd1ddceb3c96ffd6U, 0xbd2b9716bc96ffd6U, 0xbd026896bd0945abU,
  0x3c771700bba4ba00U, 0xbda4ba00bdb5e2b6U, 0x3d1ddcebU, 0xbd32742b3ca4ba00U,
  0xbd54c596bd0945abU, 0xbc96ffd63c771700U, 0x3d4de8803ccde880U, 0x3d402e56bc5ba2abU,
  0x3d8945abbc402e56U, 0xbda14b76bd85d720U, 0xbd1022c0bd16ffd6U, 0xbca4ba003c96ffd6U,
  0x3c402e56bdab9716U, 0x3cb2742b3d7df416U, 0xbc402e56bd0945abU, 0xbca4ba00bd7df416U,
  0xbd9022c0bda14b76U, 0xbcb2742bbd395140U, 0xbc0945abbcf71700U, 0x3d8945abbca4ba00U,
  0xbd16ffd63d771700U, 0xbd24ba003d2b9716U, 0xbd470b6bbd1ddcebU, 0xbdca79f63cc02e56U,
  0x3d9ddceb3cc02e56U, 0x3db5e2b6bc0945abU, 0xbc5ba2ab3db2742bU, 0xbd7717003d826896U,
  0xbc24ba00bd7039ebU, 0xbd470b6b3bdba2abU, 0x3d0945abbc771700U, 0xbc5ba2abbb5ba2abU,
  0x3cf7170000000000U, 0xbd8945ab3c771700U, 0x3d695cd6bcc02e56U, 0xbd3951403d1022c0U,
  0xbbdba2abbd8cb436U, 0xbd96ffd63cb2742bU, 0xbcb2742b3ba4ba00U, 0x3d96ffd6bc5ba2abU,
  0x3d4de880bbdba2abU, 0x3d24ba003d9ddcebU, 0x3d32742bbd24ba00U, 0x3ba4ba003ddba2abU,
  0x3c7717003b5ba2abU, 0x3d32742bbda14b76U, 0x3d026896bd24ba00U, 0xbba4ba00bd16ffd6U,
  0x3ca4ba003d93914bU, 0x3c0945abbd16ffd6U, 0xbd026896bd470b6bU, 0x3d32742b3cf71700U,
  0xbba4ba00bccde880U, 0x3d1ddcebbcf71700U, 0xbca4ba00bd695cd6U, 0xbd7717003d2b9716U,
  0x3d1ddcebbdb5e2b6U, 0xbd2b97163d96ffd6U, 0x3ccde8803d402e56U, 0xbc8945ab3d9022c0U,
  0xbd24ba003d85d720U, 0xbd7039eb3ccde880U, 0xbd395140bccde880U, 0xbd402e563c24ba00U,
  0xbda14b763cf71700U, 0x3d470b6bbd16ffd6U, 0x3d695cd63b5ba2abU, 0xbccde880bc5ba2abU,
  0x3d32742bbd1ddcebU, 0x3d1ddceb3d54c596U, 0xbc5ba2abbd7df416U, 0xbb5ba2ab3d2b9716U,
  0x3d7717003cf71700U, 0x3d1ddcebbd1022c0U, 0xbc96ffd6bd395140U, 0x3d1022c03cb2742bU,
  0x3d1022c0bc24ba00U, 0x3c5ba2abbd395140U, 0xbadba2abbd8945abU, 0xbc7717003d9a6e60U,
  0x3d24ba003ba4ba00U, 0xbc96ffd6bd1022c0U, 0xbd7df4163d0945abU, 0xbd8cb4363d0945abU,
  0x3d627fc03d7df416U, 0x3d8cb436bd32742bU, 0xbba4ba003d695cd6U, 0xbd627fc0bd5ba2abU,
  0x3d8cb4363d771700U, 0x3d96ffd6bc402e56U, 0xbd2b9716bc24ba00U, 0x3c96ffd6bcc02e56U,
  0x3cc02e56bd026896U, 0xbd9a6e60bd5ba2abU, 0xbcdba2ab3c24ba00U, 0x3adba2abbda8288bU,
  0xbd16ffd63d9ddcebU, 0xbd9a6e60bcdba2abU, 0x3c5ba2abbd32742bU, 0x3c96ffd6bd470b6bU,
  0x3adba2ab3cdba2abU, 0x3ce95cd6bca4ba00U, 0xbd24ba003d395140U, 0xbba4ba003c402e56U,
  0xbd7039ebbd395140U, 0xbdaf05a03c8945abU, 0xbd8945ab3d1ddcebU, 0xbc771700bdca79f6U,
  0xbc402e56bd7df416U, 0x3d470b6bbdf039ebU, 0xbd32742bbc8945abU, 0xbba4ba003d2b9716U,
  0xbd5ba2ab3d32742bU, 0xbd16ffd6bd5ba2abU, 0x3ccde880bd470b6bU, 0x3d695cd6bd2b9716U,
  0xbd7df416bd8945abU, 0xbc96ffd63d16ffd6U, 0xbd8945abbca4ba00U, 0x3d85d7203cdba2abU,
  0xbcb2742bbccde880U, 0xbd16ffd6bba4ba00U, 0xbd2b97163d2b9716U, 0xbca4ba00bdb2742bU,
  0x3cdba2abbd470b6bU, 0xbba4ba00bd54c596U, 0xbe05d7203d9022c0U, 0x3de27fc0bca4ba00U,
  0xbd402e563d7039ebU, 0x3d402e56badba2abU, 0xbd16ffd63c771700U, 0x3da4ba00bd1ddcebU,
  0x3cb2742bU, 0x3d32742b3d85d720U, 0xbc5ba2abbd627fc0U, 0xbd32742b3c8945abU,
  0xbb5ba2ab3df3a876U, 0x3d8cb436bdb2742bU, 0x3da4ba003d9022c0U, 0x3d8945abbcb2742bU,
  0x3c0945abbd2b9716U, 0x3db5e2b6bd16ffd6U, 0xbd826896bd026896U, 0x3ccde8803ccde880U,
  0x3d9022c0bc402e56U, 0xbd24ba00bd1022c0U, 0x3ce95cd63c96ffd6U, 0x3d4de880bdab9716U,
  0xbc24ba003cdba2abU, 0x3d695cd6bd2b9716U, 0xbc96ffd63ce95cd6U, 0xbc771700bdaf05a0U,
  0xbd5ba2ab3c5ba2abU, 0xbcb2742b3d93914bU, 0x3d470b6bbcf71700U, 0x3e1022c03c402e56U,
  0xbd1ddcebbc771700U, 0xbc5ba2abbc5ba2abU, 0xbcb2742b3d54c596U, 0x3d96ffd600000000U,
  0xbda8288b3d9022c0U, 0x3d395140bc402e56U, 0xbd0945abbda8288bU, 0x3db5e2b6bd32742bU,
  0xbb5ba2ab3d93914bU, 0x3cf717003d54c596U, 0xbd8945abbd1ddcebU, 0xbda8288bbd8945abU,
  0xbc96ffd6bcf71700U, 0x3dd834203d7df416U, 0x3d7039eb3d93914bU, 0xbd9a6e60bd8cb436U,
  0xbd2b97163d8945abU, 0xbd8268963d826896U, 0xbd0945ab3d16ffd6U, 0x3d695cd63d54c596U,
  0x3c5ba2ab3d5ba2abU, 0x3d7717003b5ba2abU, 0x3d4de88000000000U, 0xbd16ffd63dbcbfcbU,
  0x3d402e56bd2b9716U, 0xbce95cd6bcc02e56U, 0x3d695cd6badba2abU, 0x3db951403d826896U,
  0xbd93914b3d1ddcebU, 0xbd402e56bdc02e56U, 0x3ce95cd63c24ba00U, 0xbd2b97163d93914bU,
  0xbd85d7203ca4ba00U, 0xbd8cb4363d9022c0U, 0x3d3951403da14b76U, 0x3cc02e56bba4ba00U,
  0x3c8945ab3da14b76U, 0x3cc02e563dab9716U, 0x3da4ba003d54c596U, 0xbc5ba2abbcb2742bU,
  0x3d0268963d1ddcebU, 0xbd9ddcebbc8945abU, 0x3c771700bd395140U, 0x3d85d720bd026896U,
  0x3d695cd6bce95cd6U, 0xbd3951403cb2742bU, 0x3d7df4163c0945abU, 0x3d16ffd6badba2abU,
  0xbd826896bd395140U, 0xbc96ffd63cc02e56U, 0x3ba4ba003c5ba2abU, 0xbadba2ab3c24ba00U,
  0xbd2b97163ca4ba00U, 0x3d5ba2abbcdba2abU, 0xbbdba2ab3c402e56U, 0xbd1022c03d24ba00U,
  0x3d9a6e603b5ba2abU, 0xbd9ddcebbc24ba00U, 0x3d7df4163d5ba2abU, 0x3d54c596bd1022c0U,
  0xbc96ffd6badba2abU, 0x3bdba2abbc402e56U, 0xbba4ba003d7039ebU, 0x3daf05a0bd54c596U,
  0x3c8945abbadba2abU, 0x3d2b97163bdba2abU, 0x3d32742bbd16ffd6U, 0x3d402e56bd85d720U,
  0x3ca4ba003d5ba2abU, 0xbd7717003d395140U, 0xbda14b76bdc70b6bU, 0x3d627fc0bdb2742bU,
  0x3c402e563d85d720U, 0xbd24ba00bd24ba00U, 0x3d32742bbba4ba00U, 0xbd9ddceb3d9022c0U,
  0x3d7039eb3d470b6bU, 0xbd627fc0bdc39ce0U, 0xbd1ddcebU, 0xbd0268963c24ba00U,
  0xbc8945abbd627fc0U, 0x3d9022c0bd1ddcebU, 0x3d16ffd6bc96ffd6U, 0xbd026896bdb5e2b6U,
  0x3b5ba2abbd470b6bU, 0x3d7039ebbccde880U, 0x3d3951403c771700U, 0x3d627fc0bd1ddcebU,
  0xbd395140bd5ba2abU, 0x3d32742b3da4ba00U, 0xbd1022c03d96ffd6U, 0xbcdba2abbd026896U,
  0x3adba2abbd4de880U, 0xbc5ba2abbb5ba2abU, 0x3d7df4163d9a6e60U, 0x3d8cb4363d96ffd6U,
  0x3c96ffd63d627fc0U, 0x3d627fc03cf71700U, 0xbd3951403c402e56U, 0x3c8945ab3cf71700U,
  0x3d0945ab3c0945abU, 0x3d32742b3db5e2b6U, 0xbd32742b3d8945abU, 0x3c24ba00bd9022c0U,
  0x3d470b6b3d395140U, 0x3ca4ba00bd16ffd6U, 0xbdab97163d1022c0U, 0x3d32742b3db2742bU,
  0x3ddf11363adba2abU, 0x3d7039ebbba4ba00U, 0x3bdba2ab3ccde880U, 0x3d470b6b3c402e56U,
  0xbbdba2ab3ce95cd6U, 0xbd2b9716bd0945abU, 0x3c8945ab3d24ba00U, 0x3d85d720bbdba2abU,
  0x3d7df416bd2b9716U, 0xbd9ddcebbcb2742bU, 0x3ca4ba00bd8945abU, 0x3cdba2abbd7039ebU,
  0x3d026896bcdba2abU, 0xbadba2ab3cb2742bU, 0x3c8945abbd771700U, 0xbd7df416bd402e56U,
  0xbd8cb4363ce95cd6U, 0x3c8945abbd16ffd6U, 0xbd7df4163c0945abU, 0xbd85d7203c5ba2abU,
  0xbd85d720bce95cd6U, 0x3ba4ba00bdb5e2b6U, 0xbda4ba003b5ba2abU, 0xbdaf05a0badba2abU,
  0xbd16ffd6bd9a6e60U, 0x3b5ba2abbd0945abU, 0xbc0945abbdd1570bU, 0xbc771700bcdba2abU,
  0x3d826896bce95cd6U, 0xbd8cb4363d96ffd6U, 0x3c402e56bca4ba00U, 0xbd4de880bba4ba00U,
  0x3d402e56bdab9716U, 0x3d2b9716U, 0x3c402e56badba2abU, 0x3d1022c03cdba2abU,
  0xbbdba2abbd8945abU, 0xbce95cd6bcdba2abU, 0xbc5ba2abbdaf05a0U, 0x3cdba2ab3d16ffd6U,
  0xbcdba2abbcb2742bU, 0x3d96ffd6bc771700U, 0x3dc39ce0bcb2742bU, 0x3adba2ab3d395140U,
  0x3dab97163c402e56U, 0xbba4ba00bd9ddcebU, 0xbcdba2abbdfdf416U, 0x3cf71700bc24ba00U,
  0x3ccde880bcb2742bU, 0x3c8945ab3d24ba00U, 0xbd2b97163ba4ba00U, 0x3c96ffd63d402e56U,
  0xbd16ffd6bc5ba2abU, 0x3d7039eb3d1022c0U, 0x3bdba2abbd695cd6U, 0xbd7039eb3ce95cd6U,
  0x3d1ddcebbd627fc0U, 0xbadba2abbcdba2abU, 0xbd96ffd63d0945abU, 0xbd4de880bba4ba00U,
  0x3cc02e56bd1022c0U, 0xbd9022c03d402e56U, 0xbdc02e56bccde880U, 0xbd7717003d7039ebU,
  0xbda14b76bcf71700U, 0xbd7039ebbba4ba00U, 0xbd32742b3d5ba2abU, 0xbd402e563cdba2abU,
  0xbdb2742bbc5ba2abU, 0x3ba4ba003d7039ebU, 0xbdc02e56bdd1570bU, 0xbd4de8803d627fc0U,
  0xbadba2abbdd1570bU, 0xbd395140bdf71700U, 0x3d4de8803b5ba2abU, 0x3bdba2ab3d9022c0U,
  0xbd24ba003d4de880U, 0x3d7717003d402e56U, 0x3d8cb4363d85d720U, 0xbdab9716bd026896U,
  0x3d32742bbadba2abU, 0xbd1022c03d16ffd6U, 0xbde95cd6bd2b9716U, 0x3ba4ba00bd826896U,
  0xbdb2742bbcdba2abU, 0xbd5ba2ab3d826896U, 0x3d402e56bd93914bU, 0xbd4de880bd627fc0U,
  0x3c7717003d771700U, 0xbc402e56bd32742bU, 0x3d470b6bbd96ffd6U, 0x3d54c596bb5ba2abU,
  0xbd93914b3c0945abU, 0xbc402e563d24ba00U, 0x3da8288bbd695cd6U, 0xbd7717003d026896U,
  0x3d2b9716bd96ffd6U, 0xbc8945ab3d9022c0U, 0xbd026896bd771700U, 0xbdb95140bcf71700U,
  0xbda14b763d1022c0U, 0xbdab9716bd470b6bU, 0x3d93914bbd695cd6U, 0xbd85d720bcb2742bU,
  0x3d026896bd96ffd6U, 0x3d54c5963d395140U, 0xbadba2ab3d771700U, 0xbd470b6b3d93914bU,
  0xbbdba2abbd826896U, 0x3d402e56bb5ba2abU, 0x3d54c596bd7df416U, 0x3ccde8803d32742bU,
  0x3d395140bd395140U, 0x3c24ba00bc771700U, 0xbd2b97163c5ba2abU, 0xbba4ba003c771700U,
  0xbadba2abbd695cd6U, 0xbcb2742b3c771700U, 0x3d0945abbd24ba00U, 0x3d7039ebbba4ba00U,
  0x3d627fc0bcdba2abU, 0x3d8268963d7df416U, 0x3d695cd6U, 0x3d395140bd470b6bU,
  0x3bdba2ab3adba2abU, 0xbd771700bd32742bU, 0x3bdba2ab3c8945abU, 0x3db5e2b6bd2b9716U,
  0xbd395140U, 0x3da14b763c96ffd6U, 0x3d8945ab3d395140U, 0x3c24ba003adba2abU,
  0xbba4ba003ce95cd6U, 0xbd7039eb3c402e56U, 0x3b5ba2ab3d2b9716U, 0x3d1022c0bc771700U,
  0xbc0945abbd16ffd6U, 0x3dab97163d4de880U, 0xbda8288b00000000U, 0xbb5ba2abbcb2742bU,
  0x3cdba2abbc24ba00U, 0x3cb2742b3c771700U, 0xbdaf05a03d771700U, 0x3d470b6bbc96ffd6U,
  0xbd2b97163d9022c0U, 0x3d9a6e603cf71700U, 0xbd54c596bd54c596U, 0x3c402e563d16ffd6U,
  0xbb5ba2abbd54c596U, 0xbd1022c03d5ba2abU, 0x3d695cd63d402e56U, 0x3d470b6b3c8945abU,
  0xbd9ddceb3d1022c0U, 0xbcdba2ab3d395140U, 0x3d402e563d0945abU, 0x3d470b6b3cc02e56U,
  0x3d1022c03db2742bU, 0x3c96ffd6bd96ffd6U, 0x3d8945ab3d627fc0U, 0x3d54c596bd2b9716U,
  0x3dab9716bd4de880U, 0xbd627fc0bd2b9716U, 0x3d8cb4363d2b9716U, 0xbc402e563d695cd6U,
  0x3d1022c0bd8945abU, 0xbcdba2ab3db2742bU, 0xbd9ddceb3d771700U, 0xbadba2ab3c96ffd6U,
  0xbd32742b3d826896U, 0xbd695cd6bcdba2abU, 0xbd9ddcebbcdba2abU, 0x3d7df416bd9ddcebU,
  0x3c0945ab3c0945abU, 0xbc7717003d32742bU, 0x3cc02e563adba2abU, 0x3d0945abbd16ffd6U,
  0x3d8cb4363d771700U, 0xbcdba2ab3cc02e56U, 0x3dbcbfcb3d7df416U, 0x3d402e56bd402e56U,
  0xbd54c5963d0945abU, 0x3c8945abbd771700U, 0x3d0268963d026896U, 0xbc8945ab3da8288bU,
  0x3d695cd63d470b6bU, 0x3c402e56bd7039ebU, 0xbd2b97163d695cd6U, 0xbc5ba2abbcc02e56U,
  0xbd7717003d026896U, 0xbba4ba003d85d720U, 0xbd8cb436bc771700U, 0xbd24ba003d1ddcebU,
  0x3d695cd63bdba2abU, 0xbd54c596bcb2742bU, 0x3c402e56bca4ba00U, 0xbcdba2abbd54c596U,
  0xbd1022c0bd32742bU, 0xbd627fc03d026896U, 0x3cdba2ab3cf71700U, 0x3d54c5963d402e56U,
  0x3c0945ab3da8288bU, 0x3d8945ab3d8cb436U, 0xbd16ffd63c8945abU, 0xbd402e563d8cb436U,
  0x3c8945ab3c0945abU, 0xbbdba2abbd0945abU, 0xbcdba2ab3d54c596U, 0x3d1022c0bc8945abU,
  0x3d1ddceb3d5ba2abU, 0xbca4ba00bd24ba00U, 0xbd54c596bd402e56U, 0x3d2b9716bd24ba00U,
  0x3d395140bd1022c0U, 0xbd470b6bbd9a6e60U, 0xbc5ba2ab3bdba2abU, 0xbd470b6bbd16ffd6U,
  0x3d9ddcebbc5ba2abU, 0x3d7717003db5e2b6U, 0xbd627fc03d826896U, 0x3c96ffd6bce95cd6U,
  0xbd32742b3d026896U, 0xbc402e563d771700U, 0x3d2b97163d4de880U, 0x3d8945ab3d402e56U,
  0xbc5ba2abbce95cd6U, 0x3d9a6e60bccde880U, 0xbd826896bca4ba00U, 0x3da8288b3d402e56U,
  0x3d93914bbd16ffd6U, 0x3d9ddceb3d695cd6U, 0x3d8945ab3cc02e56U, 0xbcf71700bd0945abU,
  0x3d3951403d8945abU, 0x3d470b6bbce95cd6U, 0xbd2b9716bca4ba00U, 0xbd24ba003d1ddcebU,
  0xbd470b6b3df71700U, 0xbd1ddcebbd93914bU, 0xbc0945abbd0945abU, 0x3d627fc03d0945abU,
  0xbd4de880bc402e56U, 0x3d1022c03ccde880U, 0x3d24ba003da4ba00U, 0xbcc02e56bd402e56U,
  0x3c96ffd6U, 0xbd8268963d2b9716U, 0x3d16ffd63d402e56U, 0x3d7df4163d9a6e60U,
  0xbc8945ab3d16ffd6U, 0x3dab97163d9022c0U, 0x3d8268963b5ba2abU, 0xbd026896bd2b9716U,
  0x3cc02e563d96ffd6U, 0x3c8945ab3cf71700U, 0xbc96ffd63d695cd6U, 0xbce95cd6bd32742bU,
  0x3dc39ce03ddba2abU, 0xbd96ffd63d470b6bU, 0x3adba2ab3c0945abU, 0xbd32742b3d9ddcebU,
  0x3c402e563d16ffd6U, 0xbd2b97163cb2742bU, 0xbd54c5963dbcbfcbU, 0x3d627fc03ca4ba00U,
  0xbc402e563cdba2abU, 0x3d470b6b3d85d720U, 0xbd1ddceb3d1022c0U, 0x3d5ba2abbce95cd6U,
  0x3cdba2abbc771700U, 0xbd7717003c771700U, 0x3cf717003dd4c596U, 0x3d9022c0bc402e56U,
  0x3d5ba2abbd1ddcebU, 0x3cc02e56badba2abU, 0x3d0268963cb2742bU, 0x3d7039ebbc8945abU,
  0x3d8cb4363da14b76U, 0x3d2b9716bce95cd6U, 0x3d24ba00bd627fc0U, 0x3d3951403c96ffd6U,
  0x3db2742b3d24ba00U, 0xbcc02e563c402e56U, 0x3cc02e563d695cd6U, 0xbcb2742b3c8945abU,
  0x3cb2742b3d16ffd6U, 0xbc402e56U, 0xbc0945ab3c8945abU, 0x3ce95cd63d627fc0U,
  0x3ce95cd63d85d720U, 0xbc8945ab3d5ba2abU, 0xbc96ffd63d395140U, 0xbd85d720bdc39ce0U,
  0x3cc02e56bd93914bU, 0xbb5ba2abbccde880U, 0x3d32742bbb5ba2abU, 0xbd5ba2ab3dab9716U,
  0xbca4ba00bb5ba2abU, 0xbd695cd63d695cd6U, 0x3cdba2abbd32742bU, 0xbd402e56bc0945abU,
  0x3d7039eb3c8945abU, 0xbcc02e56bba4ba00U, 0x3d7039eb3cc02e56U, 0xbadba2ab3cc02e56U,
  0x3cb2742b3b5ba2abU, 0xbdbcbfcbbd85d720U, 0x3d627fc0bc0945abU, 0x3d470b6b3c96ffd6U,
  0x3b5ba2abbd54c596U, 0xbc96ffd63d2b9716U, 0x3d32742b3d627fc0U, 0xbd8cb4363d395140U,
  0x3d24ba00bd627fc0U, 0xbd85d7203d771700U, 0xbcdba2abbd85d720U, 0xbd7039eb3d7039ebU,
  0xbcf71700bc0945abU, 0xbd54c596bcdba2abU, 0xbd1ddcebbce95cd6U, 0xbdb5e2b6bda14b76U,
  0xbd7df4163d0945abU, 0xbccde880bd93914bU, 0x3d402e563bdba2abU, 0x3d96ffd6bd395140U,
  0x3c8945abbd395140U, 0xbc96ffd63d7df416U, 0xbd2b97163cc02e56U, 0x3da4ba003d54c596U,
  0xbca4ba003d395140U, 0x3cdba2abbd826896U, 0x3ce95cd6bd2b9716U, 0xbd24ba003d9a6e60U,
  0xbc96ffd6bca4ba00U, 0xbadba2ab00000000U, 0xbd470b6b3c0945abU, 0x3c96ffd63c5ba2abU,
  0x3d0945ab3d470b6bU, 0xbd8cb4363d826896U, 0xbba4ba00bc8945abU, 0x3d9022c03d695cd6U,
  0xbd4de880bd32742bU, 0xbd8945ab3c402e56U, 0xbd8268963b5ba2abU, 0x3c5ba2abbd1022c0U,
  0x3b5ba2ab3d4de880U, 0x3d96ffd63dc39ce0U, 0x3ccde880bcb2742bU, 0xbdb5e2b6bc771700U,
  0x3b5ba2abbd9ddcebU, 0x3d8268963d8cb436U, 0xbd32742b3d026896U, 0xbadba2ab3bdba2abU,
  0xbc0945abbd7039ebU, 0x3bdba2ab3d1022c0U, 0x3cdba2ab3bdba2abU, 0xbccde880bc771700U,
  0xbd771700bba4ba00U, 0x3d8945ab3cf71700U, 0x3cb2742bbc24ba00U, 0x3d93914bbb5ba2abU,
  0x3d826896bccde880U, 0xbce95cd6bda14b76U, 0xbd2b9716bd9a6e60U, 0xbd470b6bbcdba2abU,
  0xbcf71700bd54c596U, 0x3d8268963c96ffd6U, 0x3d0268963d7039ebU, 0xbc402e563d7df416U,
  0xbc5ba2ab3c24ba00U, 0xbcdba2ab3ce95cd6U, 0x3d1022c000000000U, 0xbd5ba2ab3c8945abU,
  0x3d695cd6bd2b9716U, 0xbc8945abbd1ddcebU, 0xbd4de8803da8288bU, 0xbda4ba00bcf71700U,
  0xbd7039ebbd93914bU, 0x3cdba2abbc771700U, 0x3c24ba00bc0945abU, 0xbd627fc03d16ffd6U,
  0xbba4ba00bca4ba00U, 0xbadba2abbc96ffd6U, 0x3d7df416bcdba2abU, 0x3c8945abbca4ba00U,
  0xbc0945ab3c402e56U, 0xbadba2ab3c402e56U, 0x3d54c5963d695cd6U, 0x3c7717003d402e56U,
  0xbc771700bd4de880U, 0xbc402e56bdc70b6bU, 0x3ba4ba00bc0945abU, 0x3d32742b3b5ba2abU,
  0x3cb2742b3d826896U, 0xbca4ba00bc0945abU, 0xbd5ba2abbadba2abU, 0x3c5ba2ab3c96ffd6U,
  0xbce95cd63c96ffd6U, 0x3d826896bb5ba2abU, 0x3da4ba003c24ba00U, 0x3cb2742bbd1022c0U,
  0x3d7039ebbd026896U, 0x3cdba2abbcf71700U, 0x3cf717003d93914bU, 0xbd32742bbda14b76U,
  0x3cc02e563d026896U, 0xbd8945abbcdba2abU, 0x3c402e56bbdba2abU, 0x3d771700bc8945abU,
  0xbdc70b6b3d24ba00U, 0x3d4de880bda8288bU, 0xbd2b9716bd8945abU, 0xbd16ffd63d695cd6U,
  0x3d2b9716U, 0xbc96ffd6bd16ffd6U, 0x3d0268963c96ffd6U, 0x3d85d720bb5ba2abU,
  0xbc402e56bd32742bU, 0xbc771700bda14b76U, 0xbba4ba00bd1022c0U, 0x3c5ba2abbd771700U,
  0xbcc02e56bd16ffd6U, 0xbd9022c03d7df416U, 0xbdc02e563b5ba2abU, 0x3d7df416bd026896U,
  0x3d1022c03c771700U, 0xbd8945abbcf71700U, 0x3d7039ebbd16ffd6U, 0x3d8268963ba4ba00U,
  0x3d9ddceb3cdba2abU, 0xbd9a6e60bd826896U, 0xbadba2abbc24ba00U, 0xbd32742bbd402e56U,
  0x3c402e56bc8945abU, 0x3d4de8803c771700U, 0x3d695cd63d695cd6U, 0xbd16ffd6bc96ffd6U,
  0xbd771700bc96ffd6U, 0x3da8288b3ca4ba00U, 0xbc402e563d8cb436U, 0xbb5ba2abbc402e56U,
  0x3d1ddceb3d32742bU, 0xbd16ffd6bd4de880U, 0x3d8945ab3d7df416U, 0xbba4ba003cf71700U,
  0x3d8945abbd0945abU, 0x3d695cd6bd96ffd6U, 0x3c24ba003d7039ebU, 0x3c24ba003d7039ebU,
  0x3d695cd6bd026896U, 0x3d2b9716bc402e56U, 0xbc0945ab3d1ddcebU, 0xbd8945abbd54c596U,
  0xbc7717003d8945abU, 0x3d9022c03d1ddcebU, 0xbc5ba2abbd695cd6U, 0x0U,
  0xbd1022c03d695cd6U, 0x3cf717003c771700U, 0x3c402e56bd9ddcebU, 0x3d54c596bc96ffd6U,
  0x3d0945abbc8945abU, 0xbd32742b3c24ba00U, 0x3d16ffd6bd826896U, 0xbc24ba00bd24ba00U,
  0xbd0268963adba2abU, 0xbda4ba00bd8945abU, 0x3c8945abbc24ba00U, 0x3d5ba2ab3d2b9716U,
  0x3d54c596bba4ba00U, 0x3c5ba2ab3c96ffd6U, 0xbd402e563c771700U, 0xbd1022c0bd826896U,
  0x3d8cb436bd4de880U, 0x3ce95cd6bca4ba00U, 0xbce95cd6bd0945abU, 0xbd826896bd85d720U,
  0x3c96ffd63ce95cd6U, 0x3da8288b3d627fc0U, 0xbd4de880bc771700U, 0xbadba2ab00000000U,
  0x3d16ffd6bcf71700U, 0xbd54c5963d7039ebU, 0x3cc02e56bd2b9716U, 0xbc402e563d9ddcebU,
  0x3cb2742b3b5ba2abU, 0xbca4ba00bc771700U, 0xbc5ba2ab3d9022c0U, 0x3d24ba00bca4ba00U,
  0xbd4de880bcf71700U, 0xbcb2742bbd7039ebU, 0x3db2742bbd24ba00U, 0xbd16ffd63dfdf416U,
  0xbcb2742b3d9ddcebU, 0x3d1022c03d32742bU, 0x3c771700bd0945abU, 0xbd96ffd6bd4de880U,
  0xbd771700badba2abU, 0x3ca4ba003ccde880U, 0x3ce95cd6bc402e56U, 0xbc96ffd63ccde880U,
  0xbd402e56bd826896U, 0x3ba4ba003cf71700U, 0xbcdba2ab3ce95cd6U, 0x3ba4ba00badba2abU,
  0x3d8cb4363adba2abU, 0x3d96ffd63d026896U, 0x3ccde8803db95140U, 0xbd826896bd026896U,
  0x3c402e56bd5ba2abU, 0x3d3951403cdba2abU, 0x3d695cd63d1ddcebU, 0xbd7df416bb5ba2abU,
  0x3c5ba2abbc771700U, 0xbb5ba2abbd695cd6U, 0xbd1ddceb3d9a6e60U, 0x3d402e563d9a6e60U,
  0xbc24ba00bc5ba2abU, 0x3d695cd63cdba2abU, 0xbd7df416bda4ba00U, 0x3d695cd63d7df416U,
  0x3d4de8803adba2abU, 0x3adba2ab3d026896U, 0x3d470b6bbd1ddcebU, 0xbd8cb4363c24ba00U,
  0xbd695cd63c0945abU, 0xbd470b6b3d402e56U, 0x3d5ba2abbd16ffd6U, 0x3c771700bccde880U,
  0xbd16ffd6bb5ba2abU, 0x3c5ba2ab3d24ba00U, 0x3cf717003c24ba00U, 0x3d9a6e603d8945abU,
  0x3d4de880bdaf05a0U, 0x3d826896bd695cd6U, 0x3d2b9716bd395140U, 0x3d0945abbd54c596U,
  0xbd9022c03d9ddcebU, 0x3ba4ba003d771700U, 0x3d24ba00bd402e56U, 0xbd0268963ba4ba00U,
  0xbccde880bd85d720U, 0x3d96ffd63d395140U, 0xbd4de880bc771700U, 0x3d1022c000000000U,
  0xbd9a6e60bc24ba00U, 0xbc96ffd6bd93914bU, 0x3cb2742b00000000U, 0x3da4ba00bc5ba2abU,
  0x3ce95cd63d826896U, 0x3d1ddceb3d2b9716U, 0xbccde880U, 0xbd24ba00bd2b9716U,
  0x3bdba2ab3d16ffd6U, 0x3d826896bd24ba00U, 0xbd395140bd026896U, 0xbd2b9716bd2b9716U,
  0x3d93914bbc24ba00U, 0xbd8cb4363ba4ba00U, 0xbc24ba00bd402e56U, 0x3ca4ba003c0945abU,
  0x3ccde8803d8945abU, 0xbd2b9716bd7df416U, 0x3c402e56bd5ba2abU, 0x3d8945abbcc02e56U,
  0x3d5ba2abU, 0x3d96ffd6bc0945abU, 0x3c402e56U, 0x3d2b9716bd8945abU,
  0xbd8268963d7039ebU, 0x3d96ffd6bd93914bU, 0xbd32742b3d2b9716U, 0x3d0268963d54c596U,
  0x3d695cd6bd695cd6U, 0xbd402e56badba2abU, 0x3cc02e56bc96ffd6U, 0x3c7717003cdba2abU,
  0xbc5ba2ab3d54c596U, 0x3cdba2ab3d0945abU, 0xbd9a6e60bd1ddcebU, 0xbd0945abbd627fc0U,
  0xbd4de880bd7039ebU, 0x3ccde880bd0945abU, 0x3c402e56bbdba2abU, 0x3d9a6e60bc8945abU,
  0x3ca4ba00bd1022c0U, 0xbd96ffd6bd32742bU, 0x3ccde880U, 0x3d5ba2abbd771700U,
  0x3d627fc03c96ffd6U, 0xbd0268963d695cd6U, 0xbc5ba2ab3d826896U, 0x3d7df416bd85d720U,
  0x3ba4ba00bcdba2abU, 0x3ca4ba003d1ddcebU, 0x3ca4ba003d4de880U, 0x3d3951403d93914bU,
  0x3d5ba2abbd1022c0U, 0x3d85d7203d93914bU, 0xbca4ba003ce95cd6U, 0x3d54c596bc0945abU,
  0xbc96ffd6bd85d720U, 0xbd54c596bc24ba00U, 0x3cf717003d0945abU, 0xbcdba2abbd2b9716U,
  0xbd2b97163d627fc0U, 0x3d8268963da14b76U, 0xbc5ba2ab3d470b6bU, 0xbcb2742bbcc02e56U,
  0xbce95cd6bcb2742bU, 0xbcb2742b3d32742bU, 0xbce95cd63c96ffd6U, 0x3d5ba2abbd826896U,
  0xbd4de880bd16ffd6U, 0xbcb2742b3d0945abU, 0x3bdba2abbd1ddcebU, 0x3d026896bd8945abU,
  0xbd0268963d7df416U, 0x3d0945ab3adba2abU, 0x3d24ba00bc771700U, 0xbbdba2abbd627fc0U,
  0xbdab9716bc771700U, 0xbd1022c03c402e56U, 0x3d1ddceb3da14b76U, 0xbbdba2ab3d1ddcebU,
  0xbd54c5963d16ffd6U, 0xbcc02e563c5ba2abU, 0x3d54c596bd7df416U, 0xbc96ffd63c96ffd6U,
  0xbd2b97163cc02e56U, 0x3d8268963d1022c0U, 0xbd9ddceb3d16ffd6U, 0xbd9022c0bd7039ebU,
  0xbd4de880bba4ba00U, 0x3c24ba00bd395140U, 0xbd7717003d32742bU, 0x3d3951403cf71700U,
  0x3d1ddceb3cb2742bU, 0x3d8cb4363d8945abU, 0xbc96ffd6bd695cd6U, 0xbc0945ab3d1ddcebU,
  0x3d9a6e603c771700U, 0x3c5ba2ab3b5ba2abU, 0xbd470b6b3ca4ba00U, 0xbba4ba003adba2abU,
  0xbd1022c03d1022c0U, 0xbcc02e563cdba2abU, 0x3d8945abbd96ffd6U, 0x3cf717003d5ba2abU,
  0x3d3951403d54c596U, 0x3d1022c0bba4ba00U, 0x3cc02e563d54c596U, 0xbd771700bd627fc0U,
  0xbd7717003d1022c0U, 0x3cf71700bd627fc0U, 0xbd695cd63cdba2abU, 0xbd16ffd6bc8945abU,
  0x3adba2abbcb2742bU, 0x3d0945abbd4de880U, 0xbbdba2ab3d7039ebU, 0xbcf71700bd826896U,
  0x3d695cd6bcb2742bU, 0x3c0945ab3c5ba2abU, 0x3d7039ebbd32742bU, 0xbdaf05a0bce95cd6U,
  0x3bdba2abbdaf05a0U, 0x3d4de880bd627fc0U, 0xbc5ba2abbd1ddcebU, 0xbca4ba00bd826896U,
  0xbce95cd63d026896U, 0x3cdba2ab3d0945abU, 0x3c771700bbdba2abU, 0x3d695cd6bb5ba2abU,
  0xbccde880bd54c596U, 0x3c24ba003d1022c0U, 0xbd7df4163d1ddcebU, 0x3d627fc0bd9022c0U,
  0x3c8945abbd8945abU, 0xbd9ddceb3d402e56U, 0xbcb2742b3d470b6bU, 0xbc0945abbcdba2abU,
  0xbd8945abbd402e56U, 0x3d0945abbd24ba00U, 0x3c0945abbc771700U, 0x3d695cd6bcc02e56U,
  0xbd8cb436bc771700U, 0x3d695cd6bd627fc0U, 0x3c771700bd1022c0U, 0xbd8cb436bd026896U,
  0x3c8945abbd93914bU, 0x3cc02e563d5ba2abU, 0x3ce95cd63d24ba00U, 0xbbdba2abbd026896U,
  0xbd4de8803d1022c0U, 0x3d395140bd4de880U, 0xbd1022c03d771700U, 0x3bdba2ab3d9a6e60U,
  0xbadba2ab3c771700U, 0x3d9022c0bc8945abU, 0xbd9022c03d1ddcebU, 0x3d7039ebbd2b9716U,
  0xbce95cd6bd7039ebU, 0xbc0945abbdab9716U, 0x3d3951403dab9716U, 0xbd32742bbd8cb436U,
  0x3d826896bc5ba2abU, 0x3d96ffd63d54c596U, 0x3c5ba2ab3d54c596U, 0xbd695cd600000000U,
  0xbc96ffd6bd2b9716U, 0xbd8cb4363c96ffd6U, 0xbd026896bba4ba00U, 0xbd2b9716bd9022c0U,
  0xbba4ba00bbdba2abU, 0x3adba2abbce95cd6U, 0x3ccde8803d8cb436U, 0xbd96ffd6bc24ba00U,
  0xbd24ba003c771700U, 0x3d8945abbd402e56U, 0xbd771700bd026896U, 0xbd0268963cdba2abU,
  0x3d1022c0bc771700U, 0xbc7717003ca4ba00U, 0x3d2b97163d93914bU, 0x3bdba2abbd24ba00U,
  0x3c96ffd6bd5ba2abU, 0xbd695cd6bca4ba00U, 0xbdaf05a03c402e56U, 0x3d7717003d0945abU,
  0xbd9ddceb3d826896U, 0xbd54c596bca4ba00U, 0x3cc02e563ce95cd6U, 0x3d02689600000000U,
  0xbd771700bca4ba00U, 0x3ce95cd6bd32742bU, 0x3c771700bcdba2abU, 0x3d32742bbd4de880U,
  0xbd7df416bd24ba00U, 0xbd8945abbcf71700U, 0x3d026896bbdba2abU, 0xbd24ba00bd627fc0U,
  0xbc402e563d8945abU, 0x3d695cd6bdab9716U, 0xbdaf05a0bd0945abU, 0x3ca4ba00bd7df416U,
  0xbca4ba003d470b6bU, 0x3b5ba2ab3ccde880U, 0x3adba2ab3d7df416U, 0x3d1ddceb3d54c596U,
  0x3d627fc03d8cb436U, 0x3d32742bbce95cd6U, 0xbc0945abbc0945abU, 0x3d1ddcebbd470b6bU,
  0x3d026896bda14b76U, 0xbd1ddcebbd627fc0U, 0xbdab9716bc0945abU, 0xbda4ba00bce95cd6U,
  0x3cf717003d7039ebU, 0xbd826896bcf71700U, 0x3c7717003d5ba2abU, 0x3c5ba2ab3c0945abU,
  0x3b5ba2abbc5ba2abU, 0xbba4ba003d470b6bU, 0xbc24ba003c24ba00U, 0x3d627fc03cc02e56U,
  0xbd4de8803d7df416U, 0xbc96ffd6bc0945abU, 0x3d402e56bc0945abU, 0xbd1ddceb3d4de880U,
  0x3d0945abbca4ba00U, 0xbd32742bbd32742bU, 0xbd627fc03cb2742bU, 0x3b5ba2abbdca79f6U,
  0x3db5e2b63d8945abU, 0xbd7039ebbd695cd6U, 0xbd470b6bbd9022c0U, 0xbd24ba003c771700U,
  0x3d771700badba2abU, 0x3d2b9716bd85d720U, 0xbc24ba003d402e56U, 0xbcb2742bbc8945abU,
  0x3b5ba2abbcb2742bU, 0xbc8945ab3d826896U, 0x3d16ffd63d85d720U, 0x3c402e56bc0945abU,
  0x3b5ba2ab3c8945abU, 0xbda14b76bd026896U, 0x3c771700bc771700U, 0x3d695cd63d402e56U,
  0x3c5ba2abbd627fc0U, 0x3ce95cd6bd93914bU, 0x3c0945ab3c96ffd6U, 0xbc96ffd63d32742bU,
  0x3d7df416bd24ba00U, 0xbd8268963c8945abU, 0x3d4de880bd470b6bU, 0x3c8945ab3c8945abU,
  0xbcdba2abbc0945abU, 0xbd8cb436bd96ffd6U, 0x3d9022c03d402e56U, 0xbd771700bd9ddcebU,
  0xbc24ba00bd9a6e60U, 0x3da14b763d402e56U, 0xbd32742b3c771700U, 0xbd5ba2abbd0945abU,
  0xbba4ba003d395140U, 0x3ccde8803d54c596U, 0xbbdba2abbca4ba00U, 0x3d1022c0bd9022c0U,
  0x3cf717003d402e56U, 0x3d8268963d2b9716U, 0x3d695cd63d470b6bU, 0x3adba2abbd4de880U,
  0xbd402e563d1ddcebU, 0xbd695cd63d470b6bU, 0x3d5ba2ab3ba4ba00U, 0xbbdba2ab3d695cd6U,
  0x3d32742bbd16ffd6U, 0xbce95cd63c96ffd6U, 0xbd0945ab3d2b9716U, 0xbd771700bd7df416U,
  0xbd54c596bd7039ebU, 0xbd3951403d7df416U, 0xbd0945abbdab9716U, 0x3c5ba2ab3d470b6bU,
  0x3b5ba2ab3d85d720U, 0xbd4de8803d5ba2abU, 0x3c0945abbc96ffd6U, 0xbdc02e56bd8cb436U,
  0x3da4ba003c8945abU, 0x3c8945ab3ccde880U, 0xbd9022c0bd402e56U, 0x3cf717003c402e56U,
  0xbd32742b3d1022c0U, 0xbd8945abbd7df416U, 0x3c402e563d470b6bU, 0xbbdba2ab3bdba2abU,
  0x3d4de8803d7039ebU, 0x3db951403d9a6e60U, 0xbb5ba2ab3d9a6e60U, 0x3d695cd63d32742bU,
  0x3d93914bbc24ba00U, 0xbc7717003d395140U, 0x3da8288b3d395140U, 0x3c5ba2abbd1ddcebU,
  0x3d7df416bce95cd6U, 0xbccde880bd826896U, 0x3d395140bd026896U, 0x3c7717003d4de880U,
  0xbd402e56bca4ba00U, 0x3cf71700bd8945abU, 0xbd9ddcebbda4ba00U, 0x3c7717003da14b76U,
  0x3c402e56bd1022c0U, 0x3ba4ba003d1ddcebU, 0xbc402e56bd85d720U, 0xbd85d7203ccde880U,
  0xbd1022c0bc8945abU, 0xbce95cd63d0945abU, 0xbc7717003b5ba2abU, 0x3c0945abbd93914bU,
  0xbd32742bbc0945abU, 0x3c7717003c8945abU, 0xbd1022c0bd7df416U, 0x3c5ba2abbd627fc0U,
  0x3c96ffd63ccde880U, 0x3cc02e563d32742bU, 0xbd32742bbccde880U, 0xbd96ffd6bd54c596U,
  0xbca4ba00bccde880U, 0xbd8cb436bd32742bU, 0x3d8cb4363c96ffd6U, 0x3c402e563dab9716U,
  0x3ba4ba00bd5ba2abU, 0x3d5ba2ab00000000U, 0xbc0945abbd1022c0U, 0xbcc02e56bd771700U,
  0x3c8945ab3d8cb436U, 0x3d8945abbc96ffd6U, 0xbd96ffd6bd826896U, 0xbd24ba00bd24ba00U,
  0x3ccde8803c5ba2abU, 0xbd2b9716bd402e56U, 0x3d96ffd6bd85d720U, 0x3d16ffd63c24ba00U,
  0x3d93914bbd24ba00U, 0x3d5ba2ab3d826896U, 0x3d695cd63cb2742bU, 0x3d7df416bc8945abU,
  0x3d96ffd63c5ba2abU, 0xbd0945ab3d24ba00U, 0x3adba2ab3c771700U, 0x3ca4ba00bd026896U,
  0xbd695cd63d5ba2abU, 0xbd2b97163cdba2abU, 0x3c24ba003daf05a0U, 0x3d85d72000000000U,
  0xbc96ffd6bc402e56U, 0x3ccde880bc0945abU, 0x3d5ba2abbd96ffd6U, 0xbd2b97163d9a6e60U,
  0xbd85d720bc96ffd6U, 0x3d470b6b3d470b6bU, 0x3ba4ba00bcf71700U, 0xbb5ba2abbd627fc0U,
  0x3d54c5963d7039ebU, 0x3d8cb436bd1ddcebU, 0xbbdba2abbc96ffd6U, 0x3cb2742b3cc02e56U,
  0xbce95cd6bda4ba00U, 0x3c24ba003d32742bU, 0xbc5ba2abbd771700U, 0x3c5ba2ab3c5ba2abU,
  0xbcf717003c0945abU, 0xbd85d720bd7df416U, 0x3d96ffd6bd32742bU, 0x3d627fc0bd54c596U,
  0x3d771700bbdba2abU, 0xbd7039eb3d7df416U, 0xbbdba2abbd16ffd6U, 0x3bdba2ab3d627fc0U,
  0xbd402e56bc5ba2abU, 0xbd93914bbc5ba2abU, 0x3d9ddceb3c5ba2abU, 0xbca4ba003cf71700U,
  0x3b5ba2ab3bdba2abU, 0x3d470b6bbcc02e56U, 0xbcdba2abbda8288bU, 0xbd93914bbda14b76U,
  0xbd4de880bd402e56U, 0x3d32742b3c8945abU, 0xbadba2abbd7df416U, 0xbd9022c0bd1022c0U,
  0xbd826896U, 0xbd5ba2ab3d24ba00U, 0x3daf05a03d96ffd6U, 0xbd402e56bd627fc0U,
  0x3d24ba003d8945abU, 0xbbdba2abbcb2742bU, 0xbcf71700bdcde880U, 0xbb5ba2abbb5ba2abU,
  0xbd32742bbd826896U, 0x3d9ddceb3d24ba00U, 0x3ce95cd6bd96ffd6U, 0xbce95cd63d395140U,
  0xbc8945abbc402e56U, 0xbc5ba2ab3d395140U, 0xbba4ba00bcb2742bU, 0x3ba4ba00bc5ba2abU,
  0x3d54c5963d695cd6U, 0xbca4ba00bd402e56U, 0xbd4de8803d395140U, 0x3c5ba2abbd32742bU,
  0x3d1ddceb3d7df416U, 0x3da8288b3d1022c0U, 0xbd96ffd63cb2742bU, 0xbc771700bd1ddcebU,
  0xbd7039ebbdaf05a0U, 0xbd24ba00bd9a6e60U, 0xbd1ddcebbd2b9716U, 0xbb5ba2abbd5ba2abU,
  0xbcdba2ab00000000U, 0x3d32742bbd8945abU, 0x3d24ba00bd4de880U, 0xbcb2742bbd5ba2abU,
  0xbd402e563ca4ba00U, 0x3d9a6e603d9022c0U, 0x3ce95cd63dab9716U, 0x3c24ba003c24ba00U,
  0x3d3951403da14b76U, 0xbba4ba00bd0945abU, 0xbdab97163ca4ba00U, 0x3b5ba2ab3cb2742bU,
  0x3c8945abbbdba2abU, 0x3ccde8803ce95cd6U, 0xbd2b9716bd627fc0U, 0xbd826896bcdba2abU,
  0xbcdba2ab3ba4ba00U, 0xbd826896bc402e56U, 0xbbdba2abbd771700U, 0x3c7717003d93914bU,
  0xbd470b6bbb5ba2abU, 0x3ba4ba00bd2b9716U, 0xbba4ba00bd54c596U, 0xbc8945abbcc02e56U,
  0x3c402e563ca4ba00U, 0xbd5ba2abbccde880U, 0x3c24ba00bc24ba00U, 0xbc5ba2ab3daf05a0U,
  0xbd771700bc8945abU, 0x3d2b97163d026896U, 0xbd0945abbdab9716U, 0xbd24ba00bd395140U,
  0xbc24ba003ba4ba00U, 0xbd7717003dbcbfcbU, 0x3d5ba2ab3d32742bU, 0xbd54c5963cdba2abU,
  0x3d39514000000000U, 0x3d9ddceb3dca79f6U, 0xbd5ba2ab3c5ba2abU, 0xbd96ffd6bd96ffd6U,
  0xbd4de88000000000U, 0x3cdba2ab3d026896U, 0x3c24ba003c0945abU, 0xbc24ba003d4de880U,
  0xbd395140bda8288bU, 0xbc96ffd63c24ba00U, 0x3adba2ab3d695cd6U, 0x3c5ba2abbd5ba2abU,
  0x3d5ba2ab3db2742bU, 0xbd395140bd7039ebU, 0x3d16ffd6bcf71700U, 0x3ddba2ab3dd83420U,
  0xbc771700bc5ba2abU, 0xbcc02e563d16ffd6U, 0x3c24ba003d695cd6U, 0x3c24ba00bd85d720U,
  0xbcf71700bba4ba00U, 0x3c402e563d24ba00U, 0x3d32742bbd85d720U, 0xbc5ba2ab3d627fc0U,
  0x3d16ffd63d627fc0U, 0xbca4ba003c402e56U, 0x3b5ba2abbc771700U, 0xbcdba2abbd395140U,
  0xbd2b9716bd470b6bU, 0xbba4ba00bc96ffd6U, 0x3c24ba003d16ffd6U, 0x3d1022c0bd771700U,
  0x3cb2742bbd7df416U, 0x3c0945abbc5ba2abU, 0xbccde8803d9a6e60U, 0xbc7717003d1ddcebU,
  0x3d395140bccde880U, 0xbd96ffd63c96ffd6U, 0x3c402e563d4de880U, 0x3d9a6e603c0945abU,
  0x3cdba2ab3d395140U, 0x3c8945ab3cf71700U, 0x3d9022c0bba4ba00U, 0x3c0945abbd85d720U,
  0x3ca4ba003ccde880U, 0x3d395140bd402e56U, 0xbc96ffd63d32742bU, 0x3c7717003db2742bU,
  0xbcb2742b3cf71700U, 0xbb5ba2ab3bdba2abU, 0x3d32742bbc24ba00U, 0xbd8cb4363b5ba2abU,
  0xbcdba2abbd395140U, 0xbb5ba2ab3d4de880U, 0xbcc02e56bd402e56U, 0xbc8945ab3ca4ba00U,
  0xbd0945ab3d5ba2abU, 0xbd5ba2ab3d54c596U, 0xbd826896bd5ba2abU, 0x3ce95cd63cb2742bU,
  0x3d1ddcebbd402e56U, 0x3cc02e56bd1ddcebU, 0x3d1022c03d1ddcebU, 0x3d8945ab3d5ba2abU,
  0xbd96ffd63b5ba2abU, 0x3c5ba2abbd395140U, 0x3d85d720bd4de880U, 0x3de27fc03d627fc0U,
  0xbd4de880bccde880U, 0xbcb2742b3d8945abU, 0x3d627fc03d395140U, 0xbd7df4163d24ba00U,
  0xbd8945ab3c8945abU, 0xbc0945ab3d8945abU, 0xbc8945ab3adba2abU, 0x3d026896bc0945abU,
  0x3d8945ab3d93914bU, 0xbd470b6bbd54c596U, 0x3d695cd6bba4ba00U, 0x3c96ffd63d1022c0U,
  0x3cdba2ab3d16ffd6U, 0xbccde8803d93914bU, 0xbd2b9716bbdba2abU, 0xbba4ba003d395140U,
  0xbcf71700bd5ba2abU, 0xbd1ddceb3ba4ba00U, 0xbd54c596bd7039ebU, 0xbbdba2ab3d1022c0U,
  0x3d5ba2abbc5ba2abU, 0xbadba2abbd2b9716U, 0xbcdba2abbd771700U, 0xbd395140bcf71700U,
  0x3ce95cd6bcc02e56U, 0x3b5ba2ab3cf71700U, 0x3c0945ab3d1022c0U, 0x3d402e563d9ddcebU,
  0x3d026896bd9022c0U, 0x3d8268963adba2abU, 0xbc0945ab3d7039ebU, 0x3c24ba003d54c596U,
  0xbd5ba2ab3d470b6bU, 0x3d627fc03c5ba2abU, 0x3d826896bca4ba00U, 0x3d470b6b3ccde880U,
  0x3d16ffd6bc771700U, 0x3d93914bU, 0xbd32742bbbdba2abU, 0xbd96ffd63bdba2abU,
  0x3d7df416bc5ba2abU, 0x3d32742b3dc02e56U, 0x3cc02e563d7df416U, 0x0U,
  0x3d026896bd0945abU, 0xbba4ba00bcc02e56U, 0xbcf71700bc24ba00U, 0x3d695cd63cc02e56U,
  0x3d8cb436bd0945abU, 0x3d9022c0bc5ba2abU, 0x3d7039eb3cc02e56U, 0xbd24ba00bd85d720U,
  0x3d1ddceb3cf71700U, 0xbc771700bcb2742bU, 0x3ba4ba00bb5ba2abU, 0xbd470b6bbd4de880U,
  0x3d8945abbb5ba2abU, 0x3d402e563ca4ba00U, 0xbc24ba00bd16ffd6U, 0x3d470b6b3c8945abU,
  0x3d695cd63cb2742bU, 0x3d85d7203d9ddcebU, 0x3d0945ab3c771700U, 0xbd1022c03cdba2abU,
  0x3db2742b3adba2abU, 0xbd7df416bd7df416U, 0x3d826896bb5ba2abU, 0x3d695cd6bc96ffd6U,
  0x3d695cd63c24ba00U, 0x3cdba2ab3d5ba2abU, 0xbcc02e56bd32742bU, 0xbd7039eb3d7df416U,
  0x3c0945ab3d771700U, 0xbb5ba2abbd32742bU, 0xbd627fc03d470b6bU, 0xbc24ba00badba2abU,
  0xbc0945ab3c24ba00U, 0xbcb2742b3d93914bU, 0x3ce95cd63dc39ce0U, 0xbd771700bd026896U,
  0xbd16ffd63cb2742bU, 0x3d1022c03c24ba00U, 0x3c402e56bc8945abU, 0x3d8945ab3d7df416U,
  0x3bdba2abbd1ddcebU, 0xbca4ba00bd16ffd6U, 0xbccde880bdab9716U, 0xbd2b9716U,
  0xbc402e563d8945abU, 0x3c402e56bd54c596U, 0xbd85d7203d1ddcebU, 0x3d1022c0bd2b9716U,
  0xbd3951403d1022c0U, 0x3d7df416bc8945abU, 0xbd4de8803adba2abU, 0x3c8945abbc8945abU,
  0xbccde8803d16ffd6U, 0xbccde880bb5ba2abU, 0x3d1ddceb3d402e56U, 0xbbdba2abbd54c596U,
  0xbd8cb4363ce95cd6U, 0xbc8945ab00000000U, 0xbd8cb436bd402e56U, 0x3cc02e563ba4ba00U,
  0x3d470b6bbd771700U, 0x3d3951403d1022c0U, 0xbcdba2ab3cf71700U, 0x3d1ddcebbadba2abU,
  0x3b5ba2ab3d5ba2abU, 0xbd54c5963b5ba2abU, 0x3ce95cd63d826896U, 0xbcdba2abbd9ddcebU,
  0x3d7039ebbd9ddcebU, 0x3d7df4163d1022c0U, 0xbcf71700bb5ba2abU, 0xbc96ffd63cdba2abU,
  0xbccde880badba2abU, 0x3bdba2ab3dbcbfcbU, 0x3bdba2ab3bdba2abU, 0x3d32742b3d16ffd6U,
  0xbd402e56bd695cd6U, 0xbcc02e563d695cd6U, 0x3d627fc0bc5ba2abU, 0x3da14b76bce95cd6U,
  0xbd1ddceb3d85d720U, 0x3d9ddcebbd402e56U, 0x3d695cd6bd16ffd6U, 0xbd1ddceb3adba2abU,
  0x3d85d720bb5ba2abU, 0xbd2b97163ca4ba00U, 0x3d7039ebbce95cd6U, 0xbdb2742b3adba2abU,
  0x3d2b9716bd395140U, 0x3d93914b3ca4ba00U, 0x3d7039eb3b5ba2abU, 0xbcf71700bc5ba2abU,
  0x3d96ffd6bd771700U, 0xbd85d7203c24ba00U, 0xbce95cd6bbdba2abU, 0xbd695cd6bd54c596U,
  0xbadba2abbd7039ebU, 0xbd9022c03db2742bU, 0xbd3951403dc39ce0U, 0x3d0945ab3ba4ba00U,
  0xbd24ba00bd96ffd6U, 0xbd0945ab3c5ba2abU, 0xbd7df416bd8945abU, 0xbd96ffd6bda14b76U,
  0xbd85d7203c5ba2abU, 0x3c8945ab3d1ddcebU, 0x3d0945abbc5ba2abU, 0xbda8288bbd85d720U,
  0xbd8945ab3ba4ba00U, 0x3ba4ba0000000000U, 0xbd8cb4363c771700U, 0xbd32742b3d402e56U,
  0x3adba2ab3d826896U, 0xbd627fc0bcf71700U, 0x3d5ba2ab3cf71700U, 0xbd470b6b3ba4ba00U,
  0xbda14b76bb5ba2abU, 0xbd395140bda8288bU, 0xbd8945ab3d7039ebU, 0xbcc02e563d026896U,
  0x3d16ffd6bca4ba00U, 0x3c402e563d470b6bU, 0xbd1ddcebbd7039ebU, 0xbd1ddceb3d1022c0U,
  0xbdbcbfcbbd9022c0U, 0x3c8945ab3c8945abU, 0x3d771700bc8945abU, 0x3cdba2abbb5ba2abU,
  0x3cf717003d16ffd6U, 0x3d3951403d395140U, 0x3c402e56bd402e56U, 0xbd85d7203d395140U,
  0xbc0945ab3d32742bU, 0x3adba2abbc771700U, 0x3da14b763d32742bU, 0x3ccde880bd16ffd6U,
  0x3d470b6bbc8945abU, 0x3ca4ba003d826896U, 0xbd4de880bc0945abU, 0x3d395140bce95cd6U,
  0xbd2b9716bd1ddcebU, 0x3ce95cd63d4de880U, 0x3d7039ebbba4ba00U, 0x3d4de8803c24ba00U,
  0x3adba2ab3c24ba00U, 0xbd8945abbd0945abU, 0xbd54c5963c5ba2abU, 0x3cf71700bd470b6bU,
  0xbc24ba00bd7039ebU, 0x3c24ba003cdba2abU, 0x3cdba2abbd470b6bU, 0xbba4ba00bd7df416U,
  0x3d9ddcebbcc02e56U, 0xbca4ba003ce95cd6U, 0xbcdba2abbcb2742bU, 0x3bdba2ab3dab9716U,
  0xbd3951403dc70b6bU, 0x3d54c5963adba2abU, 0xbd026896bc5ba2abU, 0xbb5ba2ab3d402e56U,
  0x3d627fc0bd0945abU, 0x3d8945ab3c24ba00U, 0xbd0268963d2b9716U, 0x3d627fc0bd85d720U,
  0x3cf71700bd32742bU, 0xbc402e563bdba2abU, 0x3d2b971600000000U, 0xbd627fc03c771700U,
  0x3d96ffd63c771700U, 0xbb5ba2ab3cc02e56U, 0x3d771700bd1022c0U, 0xbd1022c0bd96ffd6U,
  0xbd16ffd6bd4de880U, 0xbd1ddceb3d24ba00U, 0x3cdba2abbd9022c0U, 0x3c402e563ba4ba00U,
  0x3d85d7203d24ba00U, 0xbce95cd63c402e56U, 0xbd2b9716bccde880U, 0xbdbcbfcbbb5ba2abU,
  0x3dc02e56bba4ba00U, 0xbccde8803e0e6b7bU, 0x3c8945abbd9022c0U, 0xbd5ba2ab3d2b9716U,
  0x3ba4ba00bda4ba00U, 0xbd402e563d16ffd6U, 0xbd8cb4363cb2742bU, 0x3d0945ab3c771700U,
  0xbd85d7203d0945abU, 0xbd85d720bd1ddcebU, 0x3cdba2ab3d7df416U, 0xbc771700bd627fc0U,
  0xbd85d720bd7df416U, 0x3c5ba2ab3d85d720U, 0x3ba4ba003d7039ebU, 0x3d402e56bd771700U,
  0x3ba4ba00bd7039ebU, 0x3d85d7203c0945abU, 0x3d627fc03d93914bU, 0x3d695cd63d85d720U,
  0xbcc02e563d470b6bU, 0xbca4ba003d8945abU, 0x3ce95cd6bccde880U, 0xbc5ba2abbd93914bU,
  0x3d7df4163ce95cd6U, 0x3c0945abbd16ffd6U, 0xbd5ba2ab3d85d720U, 0xbd395140bd1ddcebU,
  0x3cb2742bbd96ffd6U, 0x3d16ffd6bcf71700U, 0xbc0945ab3d2b9716U, 0x3d4de880bcc02e56U,
  0xbc7717003ba4ba00U, 0xbce95cd6bd5ba2abU, 0x3d32742b3d54c596U, 0x3d1ddcebbd026896U,
  0x3b5ba2ab3d771700U, 0xbcf71700bcf71700U, 0x3d93914bbcb2742bU, 0x3c24ba00bd695cd6U,
  0xbd2b9716badba2abU, 0x3c5ba2ab3ca4ba00U, 0x3adba2ab3d8945abU, 0x3d7df4163d24ba00U,
  0xbd1ddceb3d0945abU, 0xbccde8803d24ba00U, 0xbc24ba00bd4de880U, 0xbd9022c03ce95cd6U,
  0xbd7df416bd470b6bU, 0xbd7df4163d7df416U, 0x3d5ba2abbd85d720U, 0xbce95cd63d771700U,
  0xbc96ffd63adba2abU, 0x3b5ba2ab3d85d720U, 0x3d627fc03d24ba00U, 0xbcf717003d395140U,
  0xbca4ba003d7039ebU, 0xbd16ffd63c5ba2abU, 0x3d627fc03cf71700U, 0xbd93914b3d4de880U,
  0xbd85d720bd8945abU, 0xbd24ba00bd93914bU, 0xbd1022c03cb2742bU, 0x3d7717003d7df416U,
  0x3ca4ba003c5ba2abU, 0x3ba4ba003d395140U, 0x3d1022c0bd8cb436U, 0x3c24ba003d8945abU,
  0xbd0945abbd0945abU, 0xbce95cd6bd32742bU, 0x3c24ba003ca4ba00U, 0x3d026896bcb2742bU,
  0x3d7df416bd93914bU, 0x3d54c596bd9ddcebU, 0xbce95cd63d16ffd6U, 0xbd5ba2ab3adba2abU,
  0xbd8cb4363d695cd6U, 0x3c8945abbd470b6bU, 0xbccde8803d2b9716U, 0x3b5ba2ab3d5ba2abU,
  0xbd1ddcebbd93914bU, 0x3c96ffd6bd96ffd6U, 0x3c402e56bd54c596U, 0x3d026896bd96ffd6U,
  0xbc24ba003c5ba2abU, 0xbb5ba2abbcf71700U, 0xbc24ba00bd771700U, 0x3c5ba2ab3ba4ba00U,
  0xbd54c5963d24ba00U, 0xbccde880bce95cd6U, 0xbd826896bd395140U, 0xbcc02e563d395140U,
  0xbd24ba003c402e56U, 0x3d54c5963d16ffd6U, 0x3d8268963ce95cd6U, 0xbd8cb4363d0945abU,
  0xbd0268963ba4ba00U, 0xbcdba2abbcdba2abU, 0xbccde8803c771700U, 0xbd026896bcdba2abU,
  0xbd771700bd395140U, 0x3d402e56bcdba2abU, 0xbd9a6e603d9022c0U, 0xbd7039ebbd402e56U,
  0x3d8945ab3d695cd6U, 0x3d402e56bd93914bU, 0xbd85d7203d402e56U, 0xbc402e56bd1ddcebU,
  0x3cf717003d402e56U, 0xbc7717003d32742bU, 0xbd1ddcebbd771700U, 0x3cdba2ab3d627fc0U,
  0xbba4ba003d1ddcebU, 0xbd93914bbb5ba2abU, 0x3cb2742b3d5ba2abU, 0x3d771700bd96ffd6U,
  0xbd3951403d5ba2abU, 0xbd9022c03adba2abU, 0xbd695cd63d32742bU, 0x3d826896bd8cb436U,
  0x3d2b9716bd85d720U, 0xbd8945abbca4ba00U, 0x3d7717003c96ffd6U, 0x3d1022c0bc8945abU,
  0xbd695cd63d24ba00U, 0xbccde8803cdba2abU, 0xbc0945abbd771700U, 0xbca4ba003d93914bU,
  0xbccde880bc402e56U, 0x3d7df416bd16ffd6U, 0x3c8945ab3d7df416U, 0x3d54c596bcdba2abU,
  0xbd0268963d7039ebU, 0xbc0945ab3d470b6bU, 0x3c0945abbd1ddcebU, 0xbd24ba003d9022c0U,
  0xbd0945abbd826896U, 0x3d16ffd6bc8945abU, 0x3d0945abbd96ffd6U, 0x3d8945ab3d7039ebU,
  0x3d54c596bca4ba00U, 0xbb5ba2abbd470b6bU, 0x3d771700bd0945abU, 0x3adba2ab3c8945abU,
  0xbd470b6bbd395140U, 0x3d9a6e60bccde880U, 0xbc402e563d9ddcebU, 0xbcc02e56bd2b9716U,
  0xbba4ba003d8cb436U, 0x3cdba2abbcc02e56U, 0xbd826896bd627fc0U, 0x3d8945abbd0945abU,
  0x3d8945abbd4de880U, 0xbadba2ab3d402e56U, 0x3d85d7203adba2abU, 0xbc5ba2abbd771700U,
  0xbd395140bc5ba2abU, 0xbc5ba2ab3d470b6bU, 0xbd4de880bd0945abU, 0xbc5ba2abbc8945abU,
  0x3d402e563d24ba00U, 0x3b5ba2abbd85d720U, 0xbd8cb436bbdba2abU, 0x3d16ffd6bcdba2abU,
  0x3d7df416bd026896U, 0xbd8268963c8945abU, 0x3cc02e56badba2abU, 0xbd2b97163c96ffd6U,
  0xbd9ddceb3adba2abU, 0x3d627fc03ce95cd6U, 0x3c8945ab3ca4ba00U, 0x3c96ffd6bd32742bU,
  0xbca4ba003d695cd6U, 0x3d85d720bd1ddcebU, 0xbd32742bU, 0x3cf717003da14b76U,
  0xbd470b6b3ce95cd6U, 0xbd0945ab3d771700U, 0xbc24ba00bc24ba00U, 0xbc8945ab3d1022c0U,
  0x3d32742b3d4de880U, 0xbd2b9716bd96ffd6U, 0x3d85d7203d24ba00U, 0xbd026896bd1022c0U,
  0xbd9a6e603d026896U, 0x3cdba2abbd85d720U, 0x3d16ffd600000000U, 0x3c7717003ba4ba00U,
  0x3d1ddcebbca4ba00U, 0x3ca4ba003d9ddcebU, 0x3c96ffd63d32742bU, 0x3adba2ab3cb2742bU,
  0x3d2b9716bc402e56U, 0x3da4ba003d402e56U, 0x3d8945abbd771700U, 0xbba4ba00bd8cb436U,
  0xbda4ba003d8945abU, 0x3c402e563d2b9716U, 0xbd8945ab3d5ba2abU, 0x3d3951403d026896U,
  0x3ce95cd6bd1022c0U, 0x3ca4ba003d1022c0U, 0xbd695cd63d395140U, 0x3d3951403c402e56U,
  0x3d402e56bca4ba00U, 0x3d7039ebbd5ba2abU, 0x3ccde8803d9ddcebU, 0xbd402e563d826896U,
  0x3bdba2abbc24ba00U, 0x3ba4ba00bd2b9716U, 0x3cc02e563c402e56U, 0x3d470b6b3d2b9716U,
  0xbc24ba00bcdba2abU, 0x3c24ba00bd85d720U, 0xbc5ba2abbc96ffd6U, 0x3d8cb4363d470b6bU,
  0xbd9022c03d9ddcebU, 0xbd3951403cb2742bU, 0x3d9a6e603c771700U, 0x3d1022c0bd4de880U,
  0x3d695cd6bcdba2abU, 0xbd0268963d1022c0U, 0x3d2b97163d1ddcebU, 0x3cdba2ab3c0945abU,
  0xbba4ba00bcdba2abU, 0x3c8945abbd4de880U, 0xbd24ba00bd32742bU, 0x3d627fc03d7039ebU,
  0xbce95cd6bd1022c0U, 0xbd32742b3c5ba2abU, 0x3ccde880bd1ddcebU, 0xbd85d720bbdba2abU,
  0x3d627fc03d470b6bU, 0xbd0945ab3c5ba2abU, 0xbc8945abbd026896U, 0x3c96ffd63d1022c0U,
  0x3cc02e563d695cd6U, 0xbcb2742bbd627fc0U, 0x3c771700bcb2742bU, 0xbd54c596bd85d720U,
  0xbce95cd6bd470b6bU, 0xbd9a6e603c0945abU, 0xbc7717003c8945abU, 0xbd771700bd9ddcebU,
  0xbd8cb43600000000U, 0xbd5ba2ab3b5ba2abU, 0xbd32742b3bdba2abU, 0xbba4ba00bb5ba2abU,
  0x3d9022c03d8cb436U, 0x3d5ba2ab3d9a6e60U, 0x3d0945abbc96ffd6U, 0x3d9022c03cb2742bU,
  0x3c24ba003d1022c0U, 0xbb5ba2abbcb2742bU, 0xbc96ffd6bcc02e56U, 0xbcdba2abbd9ddcebU,
  0xbd16ffd6bd395140U, 0x3d026896bba4ba00U, 0x3ca4ba003d2b9716U, 0x3c7717003c96ffd6U,
  0xbd16ffd63d4de880U, 0x3d54c596bba4ba00U, 0xbd1ddceb3c402e56U, 0x3ba4ba00bbdba2abU,
  0x3d695cd6bd771700U, 0x3cf71700bd5ba2abU, 0x3cb2742bbd695cd6U, 0xbd2b9716bd695cd6U,
  0xbd0945ab3c0945abU, 0x3d54c596bcb2742bU, 0xbd32742bbd395140U, 0xbc771700bc0945abU,
  0xbd0268963d0945abU, 0xbcdba2abbd7039ebU, 0x3c24ba00bd96ffd6U, 0xbd9022c03cc02e56U,
  0xbd402e563d85d720U, 0xbba4ba003cb2742bU, 0xbc402e56bd54c596U, 0x3d9022c03d771700U,
  0x3d2b97163d4de880U, 0xbd54c596bd395140U, 0x3c24ba003adba2abU, 0x3cf71700bd9022c0U,
  0xbd0945abbd9022c0U, 0x3d7039ebbd1022c0U, 0xbd3951403d7039ebU, 0xbd5ba2ab00000000U,
  0xbcb2742b3d8945abU, 0x3d627fc0bba4ba00U, 0xbcb2742b3cc02e56U, 0xbce95cd6bba4ba00U,
  0x3d7039ebbcc02e56U, 0xbba4ba00bd8945abU, 0x3cdba2abbcf71700U, 0xbd8945ab3d627fc0U,
  0x3c8945ab3d695cd6U, 0x3cb2742b3c8945abU, 0xbd1022c0bba4ba00U, 0xbd695cd6bd2b9716U,
  0x3c96ffd6bca4ba00U, 0x3d5ba2ab3d93914bU, 0x3c96ffd63d771700U, 0xbcdba2abbd402e56U,
  0x3d1022c0bd826896U, 0xbcb2742bbba4ba00U, 0xbd627fc0bd771700U, 0x3b5ba2ab3c771700U,
  0x3d0945abbd7039ebU, 0xbd8cb4363d7039ebU, 0xbcdba2abbcb2742bU, 0xbcb2742bbd96ffd6U,
  0xbd85d7203c771700U, 0xbd8945abbd826896U, 0x3d402e56bc771700U, 0xbd16ffd63d0945abU,
  0xbd32742bbd7039ebU, 0x3bdba2ab3d16ffd6U, 0xbca4ba003d470b6bU, 0x3c24ba003d54c596U,
  0x3c0945ab3c402e56U, 0xbbdba2ab3ba4ba00U, 0x3d7039eb3c402e56U, 0xbd96ffd6bc24ba00U,
  0xbd54c5963ba4ba00U, 0xbca4ba00bd4de880U, 0xbd32742bbadba2abU, 0xbd8268963c96ffd6U,
  0x3cdba2ab3d771700U, 0x3adba2abbd1022c0U, 0xbcdba2abbd5ba2abU, 0xbc24ba003d96ffd6U,
  0xbd8cb436bd0945abU, 0xbcdba2abU, 0xbc771700bccde880U, 0x3d1ddcebbd8cb436U,
  0x3ccde880bca4ba00U, 0xbd96ffd6bcf71700U, 0x3d402e563d402e56U, 0xbd85d720bd0945abU,
  0x3ce95cd6bce95cd6U, 0xbd627fc0bd1ddcebU, 0x3d9022c0bd771700U, 0xbbdba2ab3d7039ebU,
  0x3d1ddcebbd0945abU, 0xbd402e56bd9022c0U, 0x3d8268963d627fc0U, 0x3d5ba2abbd8cb436U,
  0x3d4de880bd627fc0U, 0xbcc02e563b5ba2abU, 0x3d24ba00bcb2742bU, 0x3adba2ab3d0945abU,
  0xbd470b6bU, 0x3d24ba003cf71700U, 0x3d4de8803d2b9716U, 0x3c771700bd026896U,
  0xbc8945abbd8945abU, 0x3cc02e56bd026896U, 0xbc0945ab3d4de880U, 0x3d93914bbd96ffd6U,
  0xbd0945abbd0945abU, 0xbccde8803d826896U, 0x3d8cb4363c24ba00U, 0x3d0945ab3d5ba2abU,
  0x3d7039eb3d9022c0U, 0xbd627fc0bd0945abU, 0xbd54c596bd4de880U, 0x3d2b9716bd7df416U,
  0xbca4ba00bd93914bU, 0xbd402e563c0945abU, 0xbcb2742b3d24ba00U, 0xbd402e563d026896U,
  0x3ba4ba00bd627fc0U, 0x3d402e563c402e56U, 0xbc0945abbd826896U, 0x3c5ba2abbd8945abU,
  0xbd695cd63d7df416U, 0x3d7039ebbd32742bU, 0xbc24ba00bd16ffd6U, 0x3d771700bb5ba2abU,
  0xbd1ddceb3d470b6bU, 0xbbdba2ab3d32742bU, 0xbd85d720bce95cd6U, 0x3d1ddcebbd695cd6U,
  0xbd54c5963cf71700U, 0xbc7717003d627fc0U, 0x3d1022c0bc24ba00U, 0xbd8cb436bcf71700U,
  0x3d9022c0bd2b9716U, 0x3c402e56bd96ffd6U, 0xbd7039eb3d9022c0U, 0xbc402e56bd7df416U,
  0xbce95cd6bd5ba2abU, 0xbccde880bd470b6bU, 0xbd695cd6bd9022c0U, 0xbca4ba00bd9a6e60U,
  0x3c0945ab3d24ba00U, 0xbd2b97163d026896U, 0xbd85d720bd627fc0U, 0x3c7717003ba4ba00U,
  0xbd7039ebbcc02e56U, 0x3d402e56bd16ffd6U, 0x3d695cd6bccde880U, 0x3c402e563d85d720U,
  0xbd2b971600000000U, 0x3dd834203bdba2abU, 0x3c24ba00bce95cd6U, 0x3c8945ab3cdba2abU,
  0x3ddf11363d93914bU, 0x3d402e56bccde880U, 0xbcf717003da4ba00U, 0x3d026896bd93914bU,
  0xbcc02e56bd5ba2abU, 0x3d9022c03d7039ebU, 0xbd32742bbd8945abU, 0x3d0945ab3d16ffd6U,
  0xbccde8803cf71700U, 0xbc402e563c402e56U, 0xbc402e56bc96ffd6U, 0x3d7717003d96ffd6U,
  0x3d402e56bd16ffd6U, 0xbcf717003cf71700U, 0x3d85d720bc8945abU, 0x3d8945abbc5ba2abU,
  0xbd470b6b3d627fc0U, 0x3c8945abbd1ddcebU, 0xbd82689600000000U, 0xbca4ba00bd5ba2abU,
  0x3c0945ab3d771700U, 0xbd32742bbd8945abU, 0xbdab97163d470b6bU, 0xbdab9716bdb2742bU,
  0x3c402e56bd4de880U, 0x3d32742b3d93914bU, 0xbb5ba2abbc0945abU, 0xbcdba2ab3ca4ba00U,
  0xbca4ba003bdba2abU, 0x3c771700bd1022c0U, 0x3c24ba00bc24ba00U, 0xbc5ba2ab3c0945abU,
  0x3d0945abbd0945abU, 0x3d395140bd402e56U, 0xbd96ffd6bcf71700U, 0xbd93914bbd54c596U,
  0x3d32742b3d2b9716U, 0x3d2b9716bd395140U, 0x3d8945ab3adba2abU, 0x3d16ffd63d395140U,
  0xbd54c5963d771700U, 0x3d2b9716bd0945abU, 0x3dc39ce03cb2742bU, 0xbcf717003ccde880U,
  0x3d8945abbc8945abU, 0x3d402e56U, 0x3d395140bb5ba2abU, 0x3d1ddcebbb5ba2abU,
  0xbd8268963d24ba00U, 0xbd32742b3d402e56U, 0xbda14b76bd16ffd6U, 0x3c0945ab3d0945abU,
  0x3db5e2b63ba4ba00U, 0xbba4ba00bb5ba2abU, 0x3cdba2ab3db5e2b6U, 0x3cc02e56bd627fc0U,
  0x3db2742b3bdba2abU, 0x3cf717003d402e56U, 0xbd695cd63d026896U, 0x3d7717003c96ffd6U,
  0xbc24ba003d32742bU, 0x3cc02e563cb2742bU, 0xbcc02e563d0945abU, 0xbd96ffd6bd1022c0U,
  0xbc5ba2ab3da4ba00U, 0x3d24ba003b5ba2abU, 0x3d93914b3d9ddcebU, 0x3d4de880bba4ba00U,
  0x3d8945ab3d1ddcebU, 0x3cb2742bbd627fc0U, 0x3d9ddceb3ca4ba00U, 0x3d470b6b3d826896U,
  0xbd627fc03d16ffd6U, 0x3d695cd6bda8288bU, 0xbd7df416bcb2742bU, 0xbd826896bd32742bU,
  0xbca4ba003d9022c0U, 0x3cdba2ab3c96ffd6U, 0xbd8cb4363dab9716U, 0x3d7df416bc96ffd6U,
  0x3c96ffd63cb2742bU, 0xbcb2742b3d026896U, 0xbcf71700bccde880U, 0xbc96ffd6bd32742bU,
  0xbc5ba2ab3d1022c0U, 0x3d026896bccde880U, 0xbd32742bbd1022c0U, 0xbd5ba2ab3d695cd6U,
  0xbce95cd63c402e56U, 0x3cf717003d627fc0U, 0x3d85d7203d1ddcebU, 0xbd1ddceb3d1022c0U,
  0x3ce95cd63ce95cd6U, 0x3c402e56bd32742bU, 0x3d5ba2ab3cdba2abU, 0xbc8945abbcf71700U,
  0x3d4de8803ca4ba00U, 0x3cc02e563d0945abU, 0x3d7039ebbc8945abU, 0x3db2742bbc8945abU,
  0xbd4de880bca4ba00U, 0xbd24ba00bd1022c0U, 0xbd3951403da14b76U, 0x3d32742b3d7df416U,
  0xbd3951403c5ba2abU, 0xbd5ba2abbccde880U, 0xbd54c5963da4ba00U, 0xbd3951403c771700U,
  0x3d9ddceb3d5ba2abU, 0xbd0945ab3cf71700U, 0xbd402e563d395140U, 0x3c0945ab3d1022c0U,
  0x3dc02e563b5ba2abU, 0xbcb2742b3bdba2abU, 0xbd627fc0bd026896U, 0x3d026896bb5ba2abU,
  0x3ccde8803d771700U, 0xbce95cd600000000U, 0x3d85d7203c0945abU, 0x3c771700bc5ba2abU,
  0xbb5ba2abbd7df416U, 0xbcc02e56bd771700U, 0x3d0945ab3d85d720U, 0xbd695cd6bd16ffd6U,
  0xbba4ba00bd695cd6U, 0x3d93914b3cb2742bU, 0xbd9ddceb3d4de880U, 0xbccde8803d85d720U,
  0xbd8945abbda4ba00U, 0x3cc02e563d9a6e60U, 0x3ce95cd600000000U, 0xbd8945ab3d1ddcebU,
  0x3ca4ba0000000000U, 0x3d4de8803d7039ebU, 0xbd4de880bcb2742bU, 0xbd32742bbcb2742bU,
  0xbd0945ab3d5ba2abU, 0xbb5ba2ab3d826896U, 0x3d3951403cb2742bU, 0xbce95cd6bba4ba00U,
  0xbd470b6b3c5ba2abU, 0x3c8945ab3d93914bU, 0x3bdba2abbd54c596U, 0x3dbcbfcb3d7039ebU,
  0xbda4ba003d402e56U, 0xbd470b6bbccde880U, 0x3c24ba00bd9ddcebU, 0x3d1ddceb3d2b9716U,
  0x3cf71700bd395140U, 0xbc8945abbdc39ce0U, 0xbc771700bd24ba00U, 0x3cdba2abbb5ba2abU,
  0x3d627fc03cf71700U, 0xbd7039ebbd1022c0U, 0xbcb2742b3d1022c0U, 0xbdaf05a0bd627fc0U,
  0xbd026896bba4ba00U, 0xbc8945ab3ba4ba00U, 0x3d93914bbba4ba00U, 0x3d026896bd0945abU,
  0xbd54c5963d826896U, 0xbd16ffd6bc96ffd6U, 0x3d395140bcf71700U, 0xbd826896bdc39ce0U,
  0x3d402e563c8945abU, 0x3d9022c0bd627fc0U, 0xbca4ba003d470b6bU, 0xbdb5e2b63d026896U,
  0xbd1022c03d026896U, 0xbccde8803c402e56U, 0x3d2b9716bce95cd6U, 0x3db5e2b6bd9022c0U,
  0x3d470b6b3dc02e56U, 0xbd2b9716bd2b9716U, 0x3d96ffd6bc0945abU, 0x3d4de880bc0945abU,
  0xbd93914b3ccde880U, 0x3d9022c03d8945abU, 0xbc96ffd63d026896U, 0xbc8945abbccde880U,
  0xbd4de8803dc02e56U, 0x3d24ba003d2b9716U, 0x3c402e563d026896U, 0xbd627fc000000000U,
  0x3adba2abbcb2742bU, 0xbd395140bd8cb436U, 0x3ba4ba003d32742bU, 0xbd395140bd695cd6U,
  0x3d9022c03d2b9716U, 0xbce95cd63d85d720U, 0x3c402e563c8945abU, 0x3adba2abbcc02e56U,
  0x3bdba2ab3d627fc0U, 0x3d7039ebbd826896U, 0x3d8268963c5ba2abU, 0x3c0945ab3cdba2abU,
  0x3adba2abbd395140U, 0xbd771700bbdba2abU, 0xbca4ba00bc771700U, 0xbd7717003cb2742bU,
  0x3d9ddceb3d470b6bU, 0xbd32742b3cb2742bU, 0xbc8945abbba4ba00U, 0xbd9ddceb3d1ddcebU,
  0xbd9022c03d1ddcebU, 0xbd402e563c8945abU, 0x3c24ba00bce95cd6U, 0x3c0945ab3cdba2abU,
  0x3dbcbfcbU, 0x3c5ba2abbcdba2abU, 0x3d93914b3ccde880U, 0xbd96ffd6bc8945abU,
  0xbba4ba00bd026896U, 0xbd8268963c24ba00U, 0x3d93914b3d0945abU, 0xbda8288bbbdba2abU,
  0x3d93914bbcc02e56U, 0xbda14b763d402e56U, 0x3d7039ebbba4ba00U, 0x3d470b6b3ccde880U,
  0xbd771700bc5ba2abU, 0x3d96ffd6bb5ba2abU, 0x3ccde8803c96ffd6U, 0xbd5ba2abbd2b9716U,
  0x3cc02e563d695cd6U, 0xbc0945ab3c5ba2abU, 0xbd8cb436bdbcbfcbU, 0xbccde880bd24ba00U,
  0xbd85d720bd627fc0U, 0xbc96ffd63d54c596U, 0xbc8945abbce95cd6U, 0xbd7039eb3d32742bU,
  0xbd1ddcebU, 0xbd470b6bbc0945abU, 0x3d24ba00bd16ffd6U, 0x3daf05a03d7df416U,
  0x3c0945ab3c96ffd6U, 0xbd4de8803ce95cd6U, 0x3d96ffd63d85d720U, 0xbdb95140bd54c596U,
  0xbd771700bc402e56U, 0x3c402e563d826896U, 0xbd8268963bdba2abU, 0xbd0268963d4de880U,
  0x3d8268963cdba2abU, 0xbda14b763d402e56U, 0xbd85d7203c402e56U, 0x3c402e56bd7039ebU,
